#include "model.h"
unsigned char cao_tflite[] = {
  0x1c, 0x00, 0x00, 0x00, 0x54, 0x46, 0x4c, 0x33, 0x14, 0x00, 0x20, 0x00,
  0x04, 0x00, 0x08, 0x00, 0x0c, 0x00, 0x10, 0x00, 0x14, 0x00, 0x00, 0x00,
  0x18, 0x00, 0x1c, 0x00, 0x14, 0x00, 0x00, 0x00, 0x03, 0x00, 0x00, 0x00,
  0x18, 0x00, 0x00, 0x00, 0x2c, 0x00, 0x00, 0x00, 0x70, 0x01, 0x00, 0x00,
  0x2c, 0x00, 0x00, 0x00, 0x18, 0x01, 0x00, 0x00, 0x8c, 0x00, 0x00, 0x00,
  0x05, 0x00, 0x00, 0x00, 0x08, 0x0a, 0x00, 0x00, 0x20, 0x09, 0x00, 0x00,
  0xd0, 0x04, 0x00, 0x00, 0x14, 0x04, 0x00, 0x00, 0x74, 0x03, 0x00, 0x00,
  0x01, 0x00, 0x00, 0x00, 0x68, 0x01, 0x00, 0x00, 0x19, 0x00, 0x00, 0x00,
  0x9c, 0x2d, 0x00, 0x00, 0x98, 0x2d, 0x00, 0x00, 0xbc, 0x2c, 0x00, 0x00,
  0x4c, 0x2c, 0x00, 0x00, 0xdc, 0x2b, 0x00, 0x00, 0x84, 0x29, 0x00, 0x00,
  0x0c, 0x29, 0x00, 0x00, 0x1c, 0x27, 0x00, 0x00, 0xbc, 0x1e, 0x00, 0x00,
  0x5c, 0x0c, 0x00, 0x00, 0xc8, 0x0b, 0x00, 0x00, 0x24, 0x0b, 0x00, 0x00,
  0x60, 0x0a, 0x00, 0x00, 0x68, 0x2d, 0x00, 0x00, 0x64, 0x2d, 0x00, 0x00,
  0x60, 0x2d, 0x00, 0x00, 0x5c, 0x2d, 0x00, 0x00, 0x58, 0x2d, 0x00, 0x00,
  0x54, 0x2d, 0x00, 0x00, 0x50, 0x2d, 0x00, 0x00, 0x4c, 0x2d, 0x00, 0x00,
  0x48, 0x2d, 0x00, 0x00, 0x44, 0x2d, 0x00, 0x00, 0x40, 0x2d, 0x00, 0x00,
  0xc0, 0x00, 0x00, 0x00, 0x01, 0x00, 0x00, 0x00, 0x10, 0x00, 0x00, 0x00,
  0x00, 0x00, 0x0a, 0x00, 0x10, 0x00, 0x0c, 0x00, 0x08, 0x00, 0x04, 0x00,
  0x0a, 0x00, 0x00, 0x00, 0x0c, 0x00, 0x00, 0x00, 0x1c, 0x00, 0x00, 0x00,
  0x20, 0x00, 0x00, 0x00, 0x0f, 0x00, 0x00, 0x00, 0x73, 0x65, 0x72, 0x76,
  0x69, 0x6e, 0x67, 0x5f, 0x64, 0x65, 0x66, 0x61, 0x75, 0x6c, 0x74, 0x00,
  0x01, 0x00, 0x00, 0x00, 0x14, 0x00, 0x00, 0x00, 0x01, 0x00, 0x00, 0x00,
  0x28, 0x00, 0x00, 0x00, 0x08, 0x00, 0x0c, 0x00, 0x08, 0x00, 0x04, 0x00,
  0x08, 0x00, 0x00, 0x00, 0x16, 0x00, 0x00, 0x00, 0x04, 0x00, 0x00, 0x00,
  0x08, 0x00, 0x00, 0x00, 0x64, 0x65, 0x6e, 0x73, 0x65, 0x5f, 0x35, 0x38,
  0x00, 0x00, 0x00, 0x00, 0x12, 0xd4, 0xff, 0xff, 0x04, 0x00, 0x00, 0x00,
  0x0f, 0x00, 0x00, 0x00, 0x63, 0x6f, 0x6e, 0x76, 0x32, 0x64, 0x5f, 0x36,
  0x39, 0x5f, 0x69, 0x6e, 0x70, 0x75, 0x74, 0x00, 0x01, 0x00, 0x00, 0x00,
  0x0c, 0x00, 0x00, 0x00, 0x08, 0x00, 0x0c, 0x00, 0x04, 0x00, 0x08, 0x00,
  0x08, 0x00, 0x00, 0x00, 0x08, 0x00, 0x00, 0x00, 0x18, 0x00, 0x00, 0x00,
  0x13, 0x00, 0x00, 0x00, 0x6d, 0x69, 0x6e, 0x5f, 0x72, 0x75, 0x6e, 0x74,
  0x69, 0x6d, 0x65, 0x5f, 0x76, 0x65, 0x72, 0x73, 0x69, 0x6f, 0x6e, 0x00,
  0x62, 0xd4, 0xff, 0xff, 0x04, 0x00, 0x00, 0x00, 0x10, 0x00, 0x00, 0x00,
  0x31, 0x2e, 0x31, 0x34, 0x2e, 0x30, 0x00, 0x00, 0x00, 0x00, 0x00, 0x00,
  0x00, 0x00, 0x00, 0x00, 0x0f, 0x00, 0x00, 0x00, 0x4d, 0x4c, 0x49, 0x52,
  0x20, 0x43, 0x6f, 0x6e, 0x76, 0x65, 0x72, 0x74, 0x65, 0x64, 0x2e, 0x00,
  0x00, 0x00, 0x0e, 0x00, 0x18, 0x00, 0x04, 0x00, 0x08, 0x00, 0x0c, 0x00,
  0x10, 0x00, 0x14, 0x00, 0x0e, 0x00, 0x00, 0x00, 0x14, 0x00, 0x00, 0x00,
  0x70, 0x00, 0x00, 0x00, 0x74, 0x00, 0x00, 0x00, 0x78, 0x00, 0x00, 0x00,
  0xa4, 0x00, 0x00, 0x00, 0x17, 0x00, 0x00, 0x00, 0xb0, 0x2b, 0x00, 0x00,
  0x64, 0x2b, 0x00, 0x00, 0x00, 0x2b, 0x00, 0x00, 0x88, 0x2a, 0x00, 0x00,
  0x18, 0x2a, 0x00, 0x00, 0xc0, 0x27, 0x00, 0x00, 0x40, 0x27, 0x00, 0x00,
  0x50, 0x25, 0x00, 0x00, 0xf0, 0x1c, 0x00, 0x00, 0x6c, 0x0a, 0x00, 0x00,
  0xd8, 0x09, 0x00, 0x00, 0x34, 0x09, 0x00, 0x00, 0x4c, 0x08, 0x00, 0x00,
  0x64, 0x07, 0x00, 0x00, 0x58, 0x06, 0x00, 0x00, 0x78, 0x05, 0x00, 0x00,
  0x78, 0x04, 0x00, 0x00, 0xa8, 0x03, 0x00, 0x00, 0x04, 0x03, 0x00, 0x00,
  0x48, 0x02, 0x00, 0x00, 0xa8, 0x01, 0x00, 0x00, 0xfc, 0x00, 0x00, 0x00,
  0x70, 0x00, 0x00, 0x00, 0x01, 0x00, 0x00, 0x00, 0x00, 0x00, 0x00, 0x00,
  0x01, 0x00, 0x00, 0x00, 0x16, 0x00, 0x00, 0x00, 0x0b, 0x00, 0x00, 0x00,
  0xa8, 0x07, 0x00, 0x00, 0xc4, 0x06, 0x00, 0x00, 0xdc, 0x05, 0x00, 0x00,
  0xe4, 0x04, 0x00, 0x00, 0xfc, 0x03, 0x00, 0x00, 0x24, 0x03, 0x00, 0x00,
  0x90, 0x02, 0x00, 0x00, 0xc4, 0x01, 0x00, 0x00, 0x38, 0x01, 0x00, 0x00,
  0x88, 0x00, 0x00, 0x00, 0x10, 0x00, 0x00, 0x00, 0x04, 0x00, 0x00, 0x00,
  0x6d, 0x61, 0x69, 0x6e, 0x00, 0x00, 0x00, 0x00, 0x9a, 0xfd, 0xff, 0xff,
  0x04, 0x00, 0x00, 0x00, 0x10, 0x00, 0x00, 0x00, 0x04, 0x00, 0x00, 0x00,
  0x01, 0x00, 0x00, 0x00, 0x16, 0x00, 0x00, 0x00, 0x01, 0x00, 0x00, 0x00,
  0x15, 0x00, 0x00, 0x00, 0x2c, 0xd5, 0xff, 0xff, 0x14, 0x00, 0x00, 0x00,
  0x17, 0x00, 0x00, 0x00, 0x18, 0x00, 0x00, 0x00, 0x40, 0x00, 0x00, 0x00,
  0x30, 0x00, 0x00, 0x00, 0x02, 0x00, 0x00, 0x00, 0x01, 0x00, 0x00, 0x00,
  0x01, 0x00, 0x00, 0x00, 0x19, 0x00, 0x00, 0x00, 0x53, 0x74, 0x61, 0x74,
  0x65, 0x66, 0x75, 0x6c, 0x50, 0x61, 0x72, 0x74, 0x69, 0x74, 0x69, 0x6f,
  0x6e, 0x65, 0x64, 0x43, 0x61, 0x6c, 0x6c, 0x3a, 0x30, 0x00, 0x00, 0x00,
  0x02, 0x00, 0x00, 0x00, 0xff, 0xff, 0xff, 0xff, 0x01, 0x00, 0x00, 0x00,
  0xfc, 0xd4, 0xff, 0xff, 0xca, 0xfb, 0xff, 0xff, 0x00, 0x00, 0x00, 0x08,
  0x03, 0x00, 0x00, 0x00, 0x18, 0x00, 0x00, 0x00, 0x0c, 0x00, 0x00, 0x00,
  0x04, 0x00, 0x00, 0x00, 0x18, 0xd5, 0xff, 0xff, 0x01, 0x00, 0x00, 0x00,
  0x15, 0x00, 0x00, 0x00, 0x03, 0x00, 0x00, 0x00, 0x14, 0x00, 0x00, 0x00,
  0x05, 0x00, 0x00, 0x00, 0x01, 0x00, 0x00, 0x00, 0xb4, 0xd5, 0xff, 0xff,
  0x14, 0x00, 0x00, 0x00, 0x16, 0x00, 0x00, 0x00, 0x18, 0x00, 0x00, 0x00,
  0x64, 0x00, 0x00, 0x00, 0x54, 0x00, 0x00, 0x00, 0x02, 0x00, 0x00, 0x00,
  0x01, 0x00, 0x00, 0x00, 0x01, 0x00, 0x00, 0x00, 0x3c, 0x00, 0x00, 0x00,
  0x73, 0x65, 0x71, 0x75, 0x65, 0x6e, 0x74, 0x69, 0x61, 0x6c, 0x5f, 0x32,
  0x33, 0x2f, 0x64, 0x65, 0x6e, 0x73, 0x65, 0x5f, 0x35, 0x38, 0x2f, 0x4d,
  0x61, 0x74, 0x4d, 0x75, 0x6c, 0x3b, 0x73, 0x65, 0x71, 0x75, 0x65, 0x6e,
  0x74, 0x69, 0x61, 0x6c, 0x5f, 0x32, 0x33, 0x2f, 0x64, 0x65, 0x6e, 0x73,
  0x65, 0x5f, 0x35, 0x38, 0x2f, 0x42, 0x69, 0x61, 0x73, 0x41, 0x64, 0x64,
  0x00, 0x00, 0x00, 0x00, 0x02, 0x00, 0x00, 0x00, 0xff, 0xff, 0xff, 0xff,
  0x01, 0x00, 0x00, 0x00, 0xa8, 0xd5, 0xff, 0xff, 0xba, 0xfe, 0xff, 0xff,
  0x04, 0x00, 0x00, 0x00, 0x10, 0x00, 0x00, 0x00, 0x04, 0x00, 0x00, 0x00,
  0x01, 0x00, 0x00, 0x00, 0x14, 0x00, 0x00, 0x00, 0x01, 0x00, 0x00, 0x00,
  0x13, 0x00, 0x00, 0x00, 0x88, 0xf9, 0xff, 0xff, 0x0e, 0x00, 0x00, 0x00,
  0x00, 0x00, 0x00, 0x0e, 0x01, 0x00, 0x00, 0x00, 0x5c, 0xd6, 0xff, 0xff,
  0x14, 0x00, 0x00, 0x00, 0x15, 0x00, 0x00, 0x00, 0x18, 0x00, 0x00, 0x00,
  0x44, 0x00, 0x00, 0x00, 0x34, 0x00, 0x00, 0x00, 0x02, 0x00, 0x00, 0x00,
  0x01, 0x00, 0x00, 0x00, 0x08, 0x00, 0x00, 0x00, 0x1e, 0x00, 0x00, 0x00,
  0x73, 0x65, 0x71, 0x75, 0x65, 0x6e, 0x74, 0x69, 0x61, 0x6c, 0x5f, 0x32,
  0x33, 0x2f, 0x64, 0x65, 0x6e, 0x73, 0x65, 0x5f, 0x35, 0x37, 0x2f, 0x53,
  0x69, 0x67, 0x6d, 0x6f, 0x69, 0x64, 0x00, 0x00, 0x02, 0x00, 0x00, 0x00,
  0xff, 0xff, 0xff, 0xff, 0x08, 0x00, 0x00, 0x00, 0x30, 0xd6, 0xff, 0xff,
  0xfe, 0xfc, 0xff, 0xff, 0x00, 0x00, 0x00, 0x08, 0x03, 0x00, 0x00, 0x00,
  0x18, 0x00, 0x00, 0x00, 0x0c, 0x00, 0x00, 0x00, 0x04, 0x00, 0x00, 0x00,
  0x4c, 0xd6, 0xff, 0xff, 0x01, 0x00, 0x00, 0x00, 0x13, 0x00, 0x00, 0x00,
  0x03, 0x00, 0x00, 0x00, 0x12, 0x00, 0x00, 0x00, 0x04, 0x00, 0x00, 0x00,
  0x02, 0x00, 0x00, 0x00, 0x24, 0xfa, 0xff, 0xff, 0x09, 0x00, 0x00, 0x00,
  0x00, 0x00, 0x00, 0x09, 0x01, 0x00, 0x00, 0x00, 0xf8, 0xd6, 0xff, 0xff,
  0x14, 0x00, 0x00, 0x00, 0x14, 0x00, 0x00, 0x00, 0x18, 0x00, 0x00, 0x00,
  0x64, 0x00, 0x00, 0x00, 0x54, 0x00, 0x00, 0x00, 0x02, 0x00, 0x00, 0x00,
  0x01, 0x00, 0x00, 0x00, 0x08, 0x00, 0x00, 0x00, 0x3c, 0x00, 0x00, 0x00,
  0x73, 0x65, 0x71, 0x75, 0x65, 0x6e, 0x74, 0x69, 0x61, 0x6c, 0x5f, 0x32,
  0x33, 0x2f, 0x64, 0x65, 0x6e, 0x73, 0x65, 0x5f, 0x35, 0x37, 0x2f, 0x4d,
  0x61, 0x74, 0x4d, 0x75, 0x6c, 0x3b, 0x73, 0x65, 0x71, 0x75, 0x65, 0x6e,
  0x74, 0x69, 0x61, 0x6c, 0x5f, 0x32, 0x33, 0x2f, 0x64, 0x65, 0x6e, 0x73,
  0x65, 0x5f, 0x35, 0x37, 0x2f, 0x42, 0x69, 0x61, 0x73, 0x41, 0x64, 0x64,
  0x00, 0x00, 0x00, 0x00, 0x02, 0x00, 0x00, 0x00, 0xff, 0xff, 0xff, 0xff,
  0x08, 0x00, 0x00, 0x00, 0xd0, 0xd7, 0xff, 0xff, 0x00, 0x00, 0x0a, 0x00,
  0x10, 0x00, 0x04, 0x00, 0x08, 0x00, 0x0c, 0x00, 0x0a, 0x00, 0x00, 0x00,
  0x02, 0x00, 0x00, 0x00, 0x10, 0x00, 0x00, 0x00, 0x04, 0x00, 0x00, 0x00,
  0x01, 0x00, 0x00, 0x00, 0x12, 0x00, 0x00, 0x00, 0x02, 0x00, 0x00, 0x00,
  0x11, 0x00, 0x00, 0x00, 0x03, 0x00, 0x00, 0x00, 0xdc, 0xfa, 0xff, 0xff,
  0x16, 0x00, 0x00, 0x00, 0x00, 0x00, 0x00, 0x16, 0x01, 0x00, 0x00, 0x00,
  0xb0, 0xd7, 0xff, 0xff, 0x14, 0x00, 0x00, 0x00, 0x13, 0x00, 0x00, 0x00,
  0x18, 0x00, 0x00, 0x00, 0x48, 0x00, 0x00, 0x00, 0x38, 0x00, 0x00, 0x00,
  0x02, 0x00, 0x00, 0x00, 0x01, 0x00, 0x00, 0x00, 0x10, 0x00, 0x00, 0x00,
  0x20, 0x00, 0x00, 0x00, 0x73, 0x65, 0x71, 0x75, 0x65, 0x6e, 0x74, 0x69,
  0x61, 0x6c, 0x5f, 0x32, 0x33, 0x2f, 0x66, 0x6c, 0x61, 0x74, 0x74, 0x65,
  0x6e, 0x5f, 0x32, 0x31, 0x2f, 0x52, 0x65, 0x73, 0x68, 0x61, 0x70, 0x65,
  0x00, 0x00, 0x00, 0x00, 0x02, 0x00, 0x00, 0x00, 0xff, 0xff, 0xff, 0xff,
  0x10, 0x00, 0x00, 0x00, 0x88, 0xd7, 0xff, 0xff, 0x56, 0xfe, 0xff, 0xff,
  0x00, 0x00, 0x00, 0x05, 0x01, 0x00, 0x00, 0x00, 0x30, 0x00, 0x00, 0x00,
  0x24, 0x00, 0x00, 0x00, 0x04, 0x00, 0x00, 0x00, 0x48, 0xfe, 0xff, 0xff,
  0x00, 0x00, 0x00, 0x01, 0x02, 0x00, 0x00, 0x00, 0x02, 0x00, 0x00, 0x00,
  0x02, 0x00, 0x00, 0x00, 0x02, 0x00, 0x00, 0x00, 0x00, 0x00, 0x00, 0x01,
  0x01, 0x00, 0x00, 0x00, 0x11, 0x00, 0x00, 0x00, 0x01, 0x00, 0x00, 0x00,
  0x10, 0x00, 0x00, 0x00, 0x50, 0xd8, 0xff, 0xff, 0x14, 0x00, 0x00, 0x00,
  0x12, 0x00, 0x00, 0x00, 0x20, 0x00, 0x00, 0x00, 0x7c, 0x00, 0x00, 0x00,
  0x64, 0x00, 0x00, 0x00, 0x04, 0x00, 0x00, 0x00, 0x01, 0x00, 0x00, 0x00,
  0x01, 0x00, 0x00, 0x00, 0x01, 0x00, 0x00, 0x00, 0x10, 0x00, 0x00, 0x00,
  0x47, 0x00, 0x00, 0x00, 0x73, 0x65, 0x71, 0x75, 0x65, 0x6e, 0x74, 0x69,
  0x61, 0x6c, 0x5f, 0x32, 0x33, 0x2f, 0x61, 0x63, 0x74, 0x69, 0x76, 0x61,
  0x74, 0x69, 0x6f, 0x6e, 0x5f, 0x34, 0x36, 0x2f, 0x52, 0x65, 0x6c, 0x75,
  0x3b, 0x73, 0x65, 0x71, 0x75, 0x65, 0x6e, 0x74, 0x69, 0x61, 0x6c, 0x5f,
  0x32, 0x33, 0x2f, 0x6d, 0x61, 0x78, 0x5f, 0x70, 0x6f, 0x6f, 0x6c, 0x69,
  0x6e, 0x67, 0x32, 0x64, 0x5f, 0x37, 0x31, 0x2f, 0x4d, 0x61, 0x78, 0x50,
  0x6f, 0x6f, 0x6c, 0x00, 0x04, 0x00, 0x00, 0x00, 0xff, 0xff, 0xff, 0xff,
  0x01, 0x00, 0x00, 0x00, 0x01, 0x00, 0x00, 0x00, 0x10, 0x00, 0x00, 0x00,
  0x5c, 0xd8, 0xff, 0xff, 0x36, 0xfe, 0xff, 0xff, 0x00, 0x00, 0x00, 0x01,
  0x24, 0x00, 0x00, 0x00, 0x18, 0x00, 0x00, 0x00, 0x04, 0x00, 0x00, 0x00,
  0x62, 0xfc, 0xff, 0xff, 0x01, 0x00, 0x00, 0x00, 0x01, 0x00, 0x00, 0x00,
  0x00, 0x00, 0x00, 0x01, 0x01, 0x00, 0x00, 0x00, 0x10, 0x00, 0x00, 0x00,
  0x03, 0x00, 0x00, 0x00, 0x0f, 0x00, 0x00, 0x00, 0x08, 0x00, 0x00, 0x00,
  0x0b, 0x00, 0x00, 0x00, 0x1c, 0xd9, 0xff, 0xff, 0x14, 0x00, 0x00, 0x00,
  0x11, 0x00, 0x00, 0x00, 0x20, 0x00, 0x00, 0x00, 0x84, 0x00, 0x00, 0x00,
  0x6c, 0x00, 0x00, 0x00, 0x04, 0x00, 0x00, 0x00, 0x01, 0x00, 0x00, 0x00,
  0x03, 0x00, 0x00, 0x00, 0x03, 0x00, 0x00, 0x00, 0x10, 0x00, 0x00, 0x00,
  0x4e, 0x00, 0x00, 0x00, 0x73, 0x65, 0x71, 0x75, 0x65, 0x6e, 0x74, 0x69,
  0x61, 0x6c, 0x5f, 0x32, 0x33, 0x2f, 0x63, 0x6f, 0x6e, 0x76, 0x32, 0x64,
  0x5f, 0x37, 0x31, 0x2f, 0x42, 0x69, 0x61, 0x73, 0x41, 0x64, 0x64, 0x3b,
  0x73, 0x65, 0x71, 0x75, 0x65, 0x6e, 0x74, 0x69, 0x61, 0x6c, 0x5f, 0x32,
  0x33, 0x2f, 0x63, 0x6f, 0x6e, 0x76, 0x32, 0x64, 0x5f, 0x37, 0x31, 0x2f,
  0x43, 0x6f, 0x6e, 0x76, 0x32, 0x44, 0x3b, 0x63, 0x6f, 0x6e, 0x76, 0x32,
  0x64, 0x5f, 0x37, 0x31, 0x2f, 0x62, 0x69, 0x61, 0x73, 0x31, 0x00, 0x00,
  0x04, 0x00, 0x00, 0x00, 0xff, 0xff, 0xff, 0xff, 0x03, 0x00, 0x00, 0x00,
  0x03, 0x00, 0x00, 0x00, 0x10, 0x00, 0x00, 0x00, 0x14, 0xda, 0xff, 0xff,
  0x00, 0x00, 0x0e, 0x00, 0x18, 0x00, 0x08, 0x00, 0x0c, 0x00, 0x10, 0x00,
  0x07, 0x00, 0x14, 0x00, 0x0e, 0x00, 0x00, 0x00, 0x00, 0x00, 0x00, 0x05,
  0x01, 0x00, 0x00, 0x00, 0x40, 0x00, 0x00, 0x00, 0x34, 0x00, 0x00, 0x00,
  0x14, 0x00, 0x00, 0x00, 0x10, 0x00, 0x1c, 0x00, 0x1b, 0x00, 0x14, 0x00,
  0x10, 0x00, 0x0c, 0x00, 0x08, 0x00, 0x07, 0x00, 0x10, 0x00, 0x00, 0x00,
  0x00, 0x00, 0x00, 0x01, 0x02, 0x00, 0x00, 0x00, 0x02, 0x00, 0x00, 0x00,
  0x02, 0x00, 0x00, 0x00, 0x02, 0x00, 0x00, 0x00, 0x00, 0x00, 0x00, 0x01,
  0x01, 0x00, 0x00, 0x00, 0x0f, 0x00, 0x00, 0x00, 0x01, 0x00, 0x00, 0x00,
  0x0e, 0x00, 0x00, 0x00, 0x18, 0xda, 0xff, 0xff, 0x14, 0x00, 0x00, 0x00,
  0x10, 0x00, 0x00, 0x00, 0x20, 0x00, 0x00, 0x00, 0x7c, 0x00, 0x00, 0x00,
  0x64, 0x00, 0x00, 0x00, 0x04, 0x00, 0x00, 0x00, 0x01, 0x00, 0x00, 0x00,
  0x05, 0x00, 0x00, 0x00, 0x05, 0x00, 0x00, 0x00, 0x08, 0x00, 0x00, 0x00,
  0x47, 0x00, 0x00, 0x00, 0x73, 0x65, 0x71, 0x75, 0x65, 0x6e, 0x74, 0x69,
  0x61, 0x6c, 0x5f, 0x32, 0x33, 0x2f, 0x61, 0x63, 0x74, 0x69, 0x76, 0x61,
  0x74, 0x69, 0x6f, 0x6e, 0x5f, 0x34, 0x35, 0x2f, 0x52, 0x65, 0x6c, 0x75,
  0x3b, 0x73, 0x65, 0x71, 0x75, 0x65, 0x6e, 0x74, 0x69, 0x61, 0x6c, 0x5f,
  0x32, 0x33, 0x2f, 0x6d, 0x61, 0x78, 0x5f, 0x70, 0x6f, 0x6f, 0x6c, 0x69,
  0x6e, 0x67, 0x32, 0x64, 0x5f, 0x37, 0x30, 0x2f, 0x4d, 0x61, 0x78, 0x50,
  0x6f, 0x6f, 0x6c, 0x00, 0x04, 0x00, 0x00, 0x00, 0xff, 0xff, 0xff, 0xff,
  0x05, 0x00, 0x00, 0x00, 0x05, 0x00, 0x00, 0x00, 0x08, 0x00, 0x00, 0x00,
  0x08, 0xdb, 0xff, 0xff, 0x00, 0x00, 0x0e, 0x00, 0x14, 0x00, 0x00, 0x00,
  0x08, 0x00, 0x0c, 0x00, 0x07, 0x00, 0x10, 0x00, 0x0e, 0x00, 0x00, 0x00,
  0x00, 0x00, 0x00, 0x01, 0x24, 0x00, 0x00, 0x00, 0x18, 0x00, 0x00, 0x00,
  0x04, 0x00, 0x00, 0x00, 0x3a, 0xfe, 0xff, 0xff, 0x02, 0x00, 0x00, 0x00,
  0x02, 0x00, 0x00, 0x00, 0x00, 0x00, 0x00, 0x01, 0x01, 0x00, 0x00, 0x00,
  0x0e, 0x00, 0x00, 0x00, 0x03, 0x00, 0x00, 0x00, 0x0d, 0x00, 0x00, 0x00,
  0x07, 0x00, 0x00, 0x00, 0x0a, 0x00, 0x00, 0x00, 0xf4, 0xda, 0xff, 0xff,
  0x14, 0x00, 0x00, 0x00, 0x0f, 0x00, 0x00, 0x00, 0x20, 0x00, 0x00, 0x00,
  0x84, 0x00, 0x00, 0x00, 0x6c, 0x00, 0x00, 0x00, 0x04, 0x00, 0x00, 0x00,
  0x01, 0x00, 0x00, 0x00, 0x0a, 0x00, 0x00, 0x00, 0x0a, 0x00, 0x00, 0x00,
  0x08, 0x00, 0x00, 0x00, 0x4e, 0x00, 0x00, 0x00, 0x73, 0x65, 0x71, 0x75,
  0x65, 0x6e, 0x74, 0x69, 0x61, 0x6c, 0x5f, 0x32, 0x33, 0x2f, 0x63, 0x6f,
  0x6e, 0x76, 0x32, 0x64, 0x5f, 0x37, 0x30, 0x2f, 0x42, 0x69, 0x61, 0x73,
  0x41, 0x64, 0x64, 0x3b, 0x73, 0x65, 0x71, 0x75, 0x65, 0x6e, 0x74, 0x69,
  0x61, 0x6c, 0x5f, 0x32, 0x33, 0x2f, 0x63, 0x6f, 0x6e, 0x76, 0x32, 0x64,
  0x5f, 0x37, 0x30, 0x2f, 0x43, 0x6f, 0x6e, 0x76, 0x32, 0x44, 0x3b, 0x63,
  0x6f, 0x6e, 0x76, 0x32, 0x64, 0x5f, 0x37, 0x30, 0x2f, 0x62, 0x69, 0x61,
  0x73, 0x31, 0x00, 0x00, 0x04, 0x00, 0x00, 0x00, 0xff, 0xff, 0xff, 0xff,
  0x0a, 0x00, 0x00, 0x00, 0x0a, 0x00, 0x00, 0x00, 0x08, 0x00, 0x00, 0x00,
  0xec, 0xdb, 0xff, 0xff, 0x00, 0x00, 0x0e, 0x00, 0x1a, 0x00, 0x08, 0x00,
  0x0c, 0x00, 0x10, 0x00, 0x07, 0x00, 0x14, 0x00, 0x0e, 0x00, 0x00, 0x00,
  0x00, 0x00, 0x00, 0x05, 0x01, 0x00, 0x00, 0x00, 0x3c, 0x00, 0x00, 0x00,
  0x30, 0x00, 0x00, 0x00, 0x14, 0x00, 0x00, 0x00, 0x00, 0x00, 0x0e, 0x00,
  0x18, 0x00, 0x17, 0x00, 0x10, 0x00, 0x0c, 0x00, 0x08, 0x00, 0x04, 0x00,
  0x0e, 0x00, 0x00, 0x00, 0x02, 0x00, 0x00, 0x00, 0x02, 0x00, 0x00, 0x00,
  0x02, 0x00, 0x00, 0x00, 0x02, 0x00, 0x00, 0x00, 0x00, 0x00, 0x00, 0x01,
  0x01, 0x00, 0x00, 0x00, 0x0d, 0x00, 0x00, 0x00, 0x01, 0x00, 0x00, 0x00,
  0x0c, 0x00, 0x00, 0x00, 0x28, 0xff, 0xff, 0xff, 0x11, 0x00, 0x00, 0x00,
  0x00, 0x00, 0x00, 0x11, 0x01, 0x00, 0x00, 0x00, 0xfc, 0xdb, 0xff, 0xff,
  0x14, 0x00, 0x00, 0x00, 0x0e, 0x00, 0x00, 0x00, 0x20, 0x00, 0x00, 0x00,
  0x5c, 0x00, 0x00, 0x00, 0x44, 0x00, 0x00, 0x00, 0x04, 0x00, 0x00, 0x00,
  0x01, 0x00, 0x00, 0x00, 0x17, 0x00, 0x00, 0x00, 0x17, 0x00, 0x00, 0x00,
  0x04, 0x00, 0x00, 0x00, 0x26, 0x00, 0x00, 0x00, 0x73, 0x65, 0x71, 0x75,
  0x65, 0x6e, 0x74, 0x69, 0x61, 0x6c, 0x5f, 0x32, 0x33, 0x2f, 0x6d, 0x61,
  0x78, 0x5f, 0x70, 0x6f, 0x6f, 0x6c, 0x69, 0x6e, 0x67, 0x32, 0x64, 0x5f,
  0x36, 0x39, 0x2f, 0x4d, 0x61, 0x78, 0x50, 0x6f, 0x6f, 0x6c, 0x00, 0x00,
  0x04, 0x00, 0x00, 0x00, 0xff, 0xff, 0xff, 0xff, 0x17, 0x00, 0x00, 0x00,
  0x17, 0x00, 0x00, 0x00, 0x04, 0x00, 0x00, 0x00, 0xcc, 0xdc, 0xff, 0xff,
  0x00, 0x00, 0x0e, 0x00, 0x16, 0x00, 0x00, 0x00, 0x08, 0x00, 0x0c, 0x00,
  0x07, 0x00, 0x10, 0x00, 0x0e, 0x00, 0x00, 0x00, 0x00, 0x00, 0x00, 0x01,
  0x30, 0x00, 0x00, 0x00, 0x24, 0x00, 0x00, 0x00, 0x10, 0x00, 0x00, 0x00,
  0x00, 0x00, 0x0a, 0x00, 0x10, 0x00, 0x0f, 0x00, 0x04, 0x00, 0x08, 0x00,
  0x0a, 0x00, 0x00, 0x00, 0x02, 0x00, 0x00, 0x00, 0x02, 0x00, 0x00, 0x00,
  0x00, 0x00, 0x00, 0x01, 0x01, 0x00, 0x00, 0x00, 0x0c, 0x00, 0x00, 0x00,
  0x03, 0x00, 0x00, 0x00, 0x00, 0x00, 0x00, 0x00, 0x06, 0x00, 0x00, 0x00,
  0x09, 0x00, 0x00, 0x00, 0x0c, 0x00, 0x10, 0x00, 0x0b, 0x00, 0x00, 0x00,
  0x0c, 0x00, 0x04, 0x00, 0x0c, 0x00, 0x00, 0x00, 0x03, 0x00, 0x00, 0x00,
  0x00, 0x00, 0x00, 0x03, 0x01, 0x00, 0x00, 0x00, 0xe0, 0xdc, 0xff, 0xff,
  0x14, 0x00, 0x00, 0x00, 0x0d, 0x00, 0x00, 0x00, 0x20, 0x00, 0x00, 0x00,
  0x84, 0x00, 0x00, 0x00, 0x6c, 0x00, 0x00, 0x00, 0x04, 0x00, 0x00, 0x00,
  0x01, 0x00, 0x00, 0x00, 0x2e, 0x00, 0x00, 0x00, 0x2e, 0x00, 0x00, 0x00,
  0x04, 0x00, 0x00, 0x00, 0x4e, 0x00, 0x00, 0x00, 0x73, 0x65, 0x71, 0x75,
  0x65, 0x6e, 0x74, 0x69, 0x61, 0x6c, 0x5f, 0x32, 0x33, 0x2f, 0x63, 0x6f,
  0x6e, 0x76, 0x32, 0x64, 0x5f, 0x36, 0x39, 0x2f, 0x42, 0x69, 0x61, 0x73,
  0x41, 0x64, 0x64, 0x3b, 0x73, 0x65, 0x71, 0x75, 0x65, 0x6e, 0x74, 0x69,
  0x61, 0x6c, 0x5f, 0x32, 0x33, 0x2f, 0x63, 0x6f, 0x6e, 0x76, 0x32, 0x64,
  0x5f, 0x36, 0x39, 0x2f, 0x43, 0x6f, 0x6e, 0x76, 0x32, 0x44, 0x3b, 0x63,
  0x6f, 0x6e, 0x76, 0x32, 0x64, 0x5f, 0x36, 0x39, 0x2f, 0x62, 0x69, 0x61,
  0x73, 0x31, 0x00, 0x00, 0x04, 0x00, 0x00, 0x00, 0xff, 0xff, 0xff, 0xff,
  0x2e, 0x00, 0x00, 0x00, 0x2e, 0x00, 0x00, 0x00, 0x04, 0x00, 0x00, 0x00,
  0xf4, 0xdc, 0xff, 0xff, 0xd2, 0xdd, 0xff, 0xff, 0x04, 0x00, 0x00, 0x00,
  0x40, 0x00, 0x00, 0x00, 0xaf, 0xd2, 0xd6, 0xbd, 0x97, 0x88, 0x23, 0xbe,
  0x7d, 0x26, 0x08, 0xbe, 0x1f, 0x05, 0xc1, 0xbd, 0xf8, 0x33, 0x00, 0xbe,
  0x7b, 0x89, 0x20, 0xbe, 0x4e, 0x45, 0x20, 0xbe, 0x52, 0xf3, 0x17, 0xbe,
  0xc2, 0xec, 0x05, 0xbe, 0xf9, 0xfd, 0x27, 0x3e, 0x65, 0x9c, 0xb2, 0xbc,
  0x60, 0xa9, 0x1b, 0x3e, 0xad, 0x66, 0x0a, 0xbe, 0xe9, 0xb1, 0x1d, 0x3e,
  0x40, 0x61, 0x10, 0xbe, 0x16, 0xe1, 0x98, 0xbd, 0x06, 0xde, 0xff, 0xff,
  0x10, 0x00, 0x00, 0x00, 0x0c, 0x00, 0x00, 0x00, 0x10, 0x00, 0x00, 0x00,
  0x60, 0x00, 0x00, 0x00, 0x01, 0x00, 0x00, 0x00, 0x10, 0x00, 0x00, 0x00,
  0x4d, 0x00, 0x00, 0x00, 0x73, 0x65, 0x71, 0x75, 0x65, 0x6e, 0x74, 0x69,
  0x61, 0x6c, 0x5f, 0x32, 0x33, 0x2f, 0x63, 0x6f, 0x6e, 0x76, 0x32, 0x64,
  0x5f, 0x37, 0x31, 0x2f, 0x42, 0x69, 0x61, 0x73, 0x41, 0x64, 0x64, 0x3b,
  0x73, 0x65, 0x71, 0x75, 0x65, 0x6e, 0x74, 0x69, 0x61, 0x6c, 0x5f, 0x32,
  0x33, 0x2f, 0x63, 0x6f, 0x6e, 0x76, 0x32, 0x64, 0x5f, 0x37, 0x31, 0x2f,
  0x43, 0x6f, 0x6e, 0x76, 0x32, 0x44, 0x3b, 0x63, 0x6f, 0x6e, 0x76, 0x32,
  0x64, 0x5f, 0x37, 0x31, 0x2f, 0x62, 0x69, 0x61, 0x73, 0x00, 0x00, 0x00,
  0xb4, 0xdd, 0xff, 0xff, 0x92, 0xde, 0xff, 0xff, 0x04, 0x00, 0x00, 0x00,
  0x20, 0x00, 0x00, 0x00, 0x5e, 0x5b, 0xf3, 0x3d, 0x9e, 0xde, 0x12, 0x3e,
  0x24, 0xba, 0x32, 0x3e, 0x34, 0x80, 0x4b, 0x3e, 0x0a, 0x92, 0xd9, 0x3d,
  0xa0, 0xa9, 0x80, 0x3d, 0xce, 0x86, 0x03, 0x3d, 0x6e, 0x42, 0x5e, 0x3d,
  0xa6, 0xde, 0xff, 0xff, 0x10, 0x00, 0x00, 0x00, 0x0b, 0x00, 0x00, 0x00,
  0x10, 0x00, 0x00, 0x00, 0x60, 0x00, 0x00, 0x00, 0x01, 0x00, 0x00, 0x00,
  0x08, 0x00, 0x00, 0x00, 0x4d, 0x00, 0x00, 0x00, 0x73, 0x65, 0x71, 0x75,
  0x65, 0x6e, 0x74, 0x69, 0x61, 0x6c, 0x5f, 0x32, 0x33, 0x2f, 0x63, 0x6f,
  0x6e, 0x76, 0x32, 0x64, 0x5f, 0x37, 0x30, 0x2f, 0x42, 0x69, 0x61, 0x73,
  0x41, 0x64, 0x64, 0x3b, 0x73, 0x65, 0x71, 0x75, 0x65, 0x6e, 0x74, 0x69,
  0x61, 0x6c, 0x5f, 0x32, 0x33, 0x2f, 0x63, 0x6f, 0x6e, 0x76, 0x32, 0x64,
  0x5f, 0x37, 0x30, 0x2f, 0x43, 0x6f, 0x6e, 0x76, 0x32, 0x44, 0x3b, 0x63,
  0x6f, 0x6e, 0x76, 0x32, 0x64, 0x5f, 0x37, 0x30, 0x2f, 0x62, 0x69, 0x61,
  0x73, 0x00, 0x00, 0x00, 0x54, 0xde, 0xff, 0xff, 0x32, 0xdf, 0xff, 0xff,
  0x04, 0x00, 0x00, 0x00, 0x10, 0x00, 0x00, 0x00, 0x57, 0x67, 0x20, 0x3e,
  0x5d, 0x8e, 0x8b, 0x3e, 0x8d, 0x05, 0x70, 0x3e, 0x89, 0xfc, 0x33, 0xbe,
  0x36, 0xdf, 0xff, 0xff, 0x10, 0x00, 0x00, 0x00, 0x0a, 0x00, 0x00, 0x00,
  0x10, 0x00, 0x00, 0x00, 0x60, 0x00, 0x00, 0x00, 0x01, 0x00, 0x00, 0x00,
  0x04, 0x00, 0x00, 0x00, 0x4d, 0x00, 0x00, 0x00, 0x73, 0x65, 0x71, 0x75,
  0x65, 0x6e, 0x74, 0x69, 0x61, 0x6c, 0x5f, 0x32, 0x33, 0x2f, 0x63, 0x6f,
  0x6e, 0x76, 0x32, 0x64, 0x5f, 0x36, 0x39, 0x2f, 0x42, 0x69, 0x61, 0x73,
  0x41, 0x64, 0x64, 0x3b, 0x73, 0x65, 0x71, 0x75, 0x65, 0x6e, 0x74, 0x69,
  0x61, 0x6c, 0x5f, 0x32, 0x33, 0x2f, 0x63, 0x6f, 0x6e, 0x76, 0x32, 0x64,
  0x5f, 0x36, 0x39, 0x2f, 0x43, 0x6f, 0x6e, 0x76, 0x32, 0x44, 0x3b, 0x63,
  0x6f, 0x6e, 0x76, 0x32, 0x64, 0x5f, 0x36, 0x39, 0x2f, 0x62, 0x69, 0x61,
  0x73, 0x00, 0x00, 0x00, 0xe4, 0xde, 0xff, 0xff, 0xc2, 0xdf, 0xff, 0xff,
  0x04, 0x00, 0x00, 0x00, 0x00, 0x12, 0x00, 0x00, 0x0c, 0xd4, 0x41, 0x3e,
  0xb5, 0x25, 0x8a, 0x3e, 0x9a, 0xb9, 0x05, 0x3e, 0x6e, 0x90, 0xeb, 0x3d,
  0x71, 0x26, 0x35, 0x3e, 0x6e, 0x1e, 0x77, 0xbd, 0x77, 0x1f, 0x50, 0xbe,
  0x80, 0x0b, 0x2b, 0x3e, 0xf8, 0x4c, 0x99, 0x3c, 0x68, 0x3f, 0xca, 0x3e,
  0xc0, 0x24, 0x6b, 0xbd, 0xc5, 0x10, 0x26, 0x3e, 0x69, 0x41, 0xbd, 0x3e,
  0x1d, 0xa1, 0x3f, 0x3e, 0x04, 0x05, 0xf0, 0xbc, 0x28, 0xbc, 0xa0, 0x3e,
  0x08, 0xe0, 0xb0, 0x3d, 0xdb, 0x68, 0x4c, 0x3e, 0xdd, 0xfa, 0x4b, 0x3e,
  0x08, 0xda, 0x18, 0x3e, 0x9f, 0xcf, 0xa7, 0xbd, 0xf0, 0x52, 0xae, 0xbc,
  0x5f, 0xc9, 0x41, 0xbe, 0xe9, 0xc4, 0xb6, 0x3c, 0x81, 0x39, 0x0c, 0xbe,
  0xe5, 0xae, 0xf8, 0x3d, 0xbe, 0x36, 0xd8, 0xbc, 0x34, 0x08, 0x7b, 0x3e,
  0xd3, 0xde, 0x88, 0xbd, 0xea, 0x9d, 0x9c, 0xbe, 0xd7, 0x54, 0x21, 0x3e,
  0xa0, 0x22, 0x8b, 0x3e, 0x0e, 0xb7, 0xed, 0x3d, 0x5f, 0x46, 0x69, 0x3e,
  0x07, 0xb7, 0x29, 0xbc, 0x5b, 0x4b, 0x8d, 0x3d, 0x06, 0x8b, 0x9b, 0x3d,
  0x9f, 0x5e, 0x4c, 0xbd, 0xdf, 0xc8, 0x27, 0xbd, 0x25, 0x97, 0xe2, 0x3e,
  0x07, 0x1e, 0x6e, 0x3d, 0x03, 0x55, 0x14, 0x3e, 0xf3, 0x3f, 0x94, 0xbe,
  0x18, 0xb8, 0x27, 0x3e, 0xe3, 0xfb, 0x15, 0xbe, 0x49, 0x10, 0x3d, 0xbe,
  0x86, 0xb6, 0xb1, 0xbd, 0x04, 0x44, 0x49, 0x3e, 0xfd, 0xcd, 0x4d, 0xbd,
  0x79, 0xf1, 0xa6, 0x3e, 0x3f, 0x05, 0x90, 0x3e, 0x2d, 0x5b, 0xd2, 0xbd,
  0x96, 0x19, 0x3b, 0x3e, 0xf0, 0xb5, 0xc9, 0xbd, 0xed, 0x45, 0x0c, 0x3f,
  0x23, 0xaa, 0xdf, 0x3e, 0xdd, 0x0d, 0xcc, 0x3d, 0x97, 0xfb, 0x23, 0x3c,
  0x91, 0x11, 0x90, 0x3e, 0x31, 0x73, 0xa8, 0xbe, 0x18, 0xdd, 0x36, 0x3d,
  0x71, 0x3b, 0x7b, 0xbd, 0xc6, 0xce, 0x87, 0x3e, 0x7e, 0xa5, 0xdc, 0x3e,
  0x86, 0x25, 0x4c, 0xbd, 0x0e, 0x16, 0x7c, 0xbe, 0xdc, 0x66, 0xc5, 0xbd,
  0x70, 0xf6, 0xac, 0xbe, 0xf9, 0xa9, 0xa2, 0xbd, 0xc5, 0xf3, 0x0f, 0x3e,
  0xfb, 0xd5, 0x14, 0x3e, 0xa2, 0xe4, 0x8b, 0x3e, 0xdf, 0xcd, 0x78, 0x3b,
  0x15, 0xd2, 0x3f, 0x3e, 0xbc, 0xc5, 0x82, 0x3d, 0xd9, 0x08, 0x5f, 0x3e,
  0x88, 0xa2, 0x93, 0x3e, 0x38, 0x96, 0x4d, 0xbe, 0x18, 0x10, 0x31, 0xbd,
  0xf9, 0xa7, 0x62, 0xbe, 0x75, 0x9d, 0xad, 0x3b, 0xdc, 0xed, 0xbb, 0x3e,
  0x5c, 0xe2, 0x14, 0x3e, 0xd7, 0x4c, 0xf9, 0x3d, 0x8d, 0xc9, 0x4a, 0x3e,
  0x4b, 0x13, 0xf9, 0x3c, 0x05, 0xa1, 0x9d, 0xbd, 0x21, 0x6b, 0x53, 0x3d,
  0xc9, 0xcd, 0x6e, 0x3e, 0x05, 0xbd, 0x28, 0x3e, 0x08, 0xae, 0x2b, 0x3e,
  0xe5, 0xc9, 0x4c, 0x3e, 0xb6, 0x09, 0xdb, 0x3d, 0x74, 0xe0, 0x1f, 0x3e,
  0x6a, 0x92, 0x2f, 0xbd, 0xae, 0xda, 0x0c, 0xbe, 0x79, 0x5a, 0xd1, 0x3d,
  0xae, 0x0c, 0xba, 0x3e, 0x95, 0x4a, 0x17, 0x3e, 0x8a, 0xdd, 0x60, 0x3d,
  0x58, 0x40, 0x68, 0x3c, 0x25, 0x0a, 0x00, 0xbe, 0x90, 0x0d, 0x96, 0x3e,
  0xff, 0x5f, 0x27, 0x3e, 0xf9, 0x50, 0xb2, 0xbd, 0xed, 0x1c, 0x1f, 0xbe,
  0xb4, 0x9c, 0x0d, 0xbe, 0x0b, 0x62, 0xfc, 0x3d, 0x38, 0x9f, 0x77, 0xbe,
  0xaa, 0xc6, 0x38, 0x3d, 0x52, 0xa7, 0x6c, 0xbd, 0x39, 0xd9, 0x9d, 0x3e,
  0x52, 0xbe, 0x04, 0x3e, 0x4f, 0xfc, 0xdc, 0x3d, 0xe3, 0x93, 0xb0, 0xbd,
  0xd3, 0x70, 0xaf, 0x3e, 0x97, 0x5c, 0xb7, 0xbd, 0x6a, 0x79, 0x9f, 0xbd,
  0xe1, 0xdc, 0x84, 0xbd, 0x7e, 0x85, 0x58, 0x3e, 0x23, 0xe4, 0x64, 0x3e,
  0x36, 0xb2, 0xfb, 0x3e, 0xc4, 0xd2, 0xf7, 0x3d, 0x5b, 0x4c, 0x28, 0xbe,
  0x4d, 0xe6, 0x59, 0x3e, 0xc9, 0x62, 0x33, 0x3e, 0x53, 0x1a, 0xab, 0x3e,
  0xd4, 0x72, 0x97, 0x3e, 0xa7, 0x2b, 0x09, 0xbe, 0xfd, 0xb9, 0x2c, 0xba,
  0x76, 0x8d, 0xb1, 0xbc, 0x34, 0xf4, 0xa1, 0xbe, 0x5a, 0x70, 0x39, 0xbd,
  0x5e, 0x51, 0x53, 0xbd, 0x56, 0x23, 0x23, 0x3e, 0x34, 0x49, 0xb6, 0x3e,
  0x8d, 0x5f, 0xad, 0x3d, 0x16, 0x91, 0xce, 0x3c, 0x30, 0x16, 0xe6, 0xbd,
  0x41, 0xef, 0xdf, 0xbd, 0x6d, 0x75, 0xca, 0x3d, 0x0a, 0x67, 0xac, 0x3e,
  0xb5, 0xfe, 0xf5, 0x3d, 0x51, 0x1c, 0x9a, 0x3e, 0x44, 0x40, 0x4b, 0x3e,
  0x34, 0xa8, 0x96, 0x3e, 0xfe, 0xed, 0x63, 0xbd, 0x77, 0x27, 0x5a, 0x3e,
  0x17, 0x2d, 0x6e, 0x3e, 0x37, 0x75, 0x9b, 0xbd, 0x81, 0xd6, 0x30, 0xbe,
  0x50, 0x85, 0x2a, 0x3e, 0x04, 0x52, 0xe7, 0x3d, 0x21, 0xb2, 0x99, 0x3e,
  0x5a, 0x75, 0x2f, 0x3e, 0x90, 0xca, 0x5e, 0x3e, 0x45, 0x6c, 0xc8, 0x3e,
  0xbf, 0x4c, 0x29, 0xbe, 0x4a, 0x23, 0x0f, 0x3c, 0x32, 0x6e, 0x43, 0x3d,
  0x98, 0xd5, 0x52, 0x3d, 0x57, 0xb8, 0xf4, 0x3d, 0x60, 0x95, 0xd7, 0xbd,
  0x64, 0x84, 0x8f, 0x3e, 0x80, 0xa0, 0x0d, 0x3c, 0x03, 0xd2, 0x02, 0x3e,
  0x3b, 0xe2, 0x53, 0xbd, 0xe3, 0x78, 0xc1, 0x3d, 0x05, 0xac, 0x22, 0x3e,
  0x8b, 0xec, 0x85, 0xbc, 0x3b, 0x0a, 0xa3, 0x3b, 0xc7, 0x2d, 0x14, 0xbd,
  0x7c, 0xf6, 0x27, 0xbd, 0xb3, 0x32, 0xe6, 0x3c, 0x83, 0x59, 0x96, 0x3d,
  0x4d, 0xd2, 0x82, 0x3e, 0x1b, 0x38, 0xd9, 0xbd, 0x03, 0x19, 0xbf, 0xbd,
  0x98, 0x2a, 0xcc, 0xbc, 0xf5, 0x09, 0xa3, 0x3e, 0xeb, 0xe2, 0x13, 0xbe,
  0x4d, 0xd8, 0x8c, 0x3d, 0x31, 0x03, 0x9a, 0xbd, 0x4b, 0x8d, 0xff, 0x3e,
  0xa6, 0x94, 0x07, 0x3e, 0x91, 0x81, 0x96, 0xbd, 0x09, 0xa8, 0x78, 0xbe,
  0xb5, 0xdb, 0xae, 0x3e, 0xcd, 0x20, 0xb6, 0xbe, 0x1b, 0xfa, 0x16, 0x3e,
  0x6c, 0xdf, 0x00, 0x3e, 0x8e, 0x5c, 0x11, 0x3e, 0xb1, 0xee, 0x04, 0x3e,
  0x72, 0x44, 0x28, 0x3d, 0x2c, 0x68, 0x8d, 0x3d, 0x01, 0xd8, 0xd1, 0xbe,
  0x1b, 0xa5, 0x81, 0x3e, 0x0f, 0x83, 0x13, 0x3e, 0xae, 0xd4, 0x86, 0x3e,
  0x4e, 0x20, 0x32, 0x3e, 0x9a, 0x0c, 0x16, 0xbd, 0x3a, 0x62, 0x85, 0x3d,
  0xac, 0x5a, 0x21, 0x3d, 0x83, 0x9f, 0x15, 0xbe, 0x11, 0x23, 0x3a, 0xbe,
  0x82, 0xe3, 0xc5, 0xbd, 0x52, 0xcc, 0x23, 0x3e, 0xb3, 0xae, 0xa4, 0x3e,
  0x8e, 0x03, 0x4a, 0x3d, 0xa4, 0x3c, 0xc5, 0x3d, 0x29, 0xcc, 0x79, 0xbe,
  0x86, 0xe8, 0xc0, 0x3c, 0x0b, 0x72, 0x27, 0xbd, 0x29, 0x64, 0xa7, 0x3e,
  0xaa, 0xe7, 0x24, 0x3e, 0x38, 0x7f, 0x73, 0x3e, 0xbf, 0x9e, 0xc8, 0xbc,
  0x42, 0x5b, 0xe8, 0xbd, 0xd5, 0x92, 0x59, 0xbd, 0x59, 0xdd, 0x57, 0x3d,
  0x44, 0x38, 0x4e, 0xbe, 0xfb, 0x49, 0xe4, 0x3d, 0x06, 0x25, 0x41, 0xbe,
  0x40, 0x2b, 0x77, 0x3d, 0x36, 0x3e, 0x14, 0x3e, 0x57, 0xf8, 0x88, 0x3e,
  0xd6, 0x50, 0xa2, 0x3d, 0xd7, 0x95, 0x58, 0x3e, 0xf4, 0x83, 0xe6, 0x3c,
  0x2c, 0xe1, 0x41, 0x3c, 0x53, 0x4b, 0xf6, 0xbd, 0x4a, 0x6d, 0xc8, 0x3d,
  0xee, 0x8e, 0x8c, 0x3d, 0x20, 0x81, 0xc8, 0x3e, 0x3e, 0x9d, 0x18, 0x3e,
  0x44, 0x35, 0x7e, 0x3e, 0x3e, 0x98, 0x74, 0x3e, 0xec, 0xa7, 0xee, 0x3d,
  0x2b, 0x08, 0x14, 0xbd, 0x9f, 0x9b, 0xc4, 0x3d, 0xb3, 0xe9, 0x1f, 0xbe,
  0x8b, 0x82, 0x28, 0x3d, 0x0a, 0x09, 0x58, 0xbd, 0xc6, 0x05, 0xf6, 0x3d,
  0x6d, 0x9c, 0xdb, 0xbd, 0x75, 0x23, 0x21, 0xbe, 0x95, 0x98, 0xdf, 0xbc,
  0x39, 0x32, 0xc9, 0x3e, 0x76, 0xf0, 0x33, 0x3e, 0xc6, 0xd9, 0xa9, 0x3e,
  0x7d, 0x1b, 0x3b, 0xbd, 0xba, 0xb6, 0x50, 0x3e, 0xf4, 0x3e, 0x6d, 0x3e,
  0xbe, 0xa5, 0xa2, 0xbd, 0xb0, 0x62, 0x06, 0x3e, 0x0e, 0x76, 0x91, 0x3e,
  0xa8, 0xb9, 0x89, 0x3d, 0xae, 0xa6, 0x40, 0x3c, 0x19, 0xb2, 0x30, 0xbe,
  0xd1, 0x13, 0x00, 0x3e, 0x6b, 0xfe, 0x0a, 0xbe, 0x87, 0x26, 0x06, 0xbe,
  0x97, 0xd5, 0xaa, 0x3d, 0xc4, 0xdd, 0xdc, 0x3e, 0xb7, 0xb2, 0xa9, 0xbe,
  0xdf, 0xe5, 0x7c, 0x3e, 0x5b, 0x2d, 0xc2, 0xbd, 0xb4, 0x92, 0x62, 0xbe,
  0x30, 0xb8, 0x53, 0xbd, 0xed, 0x07, 0x0f, 0xbe, 0xdf, 0xfe, 0x7d, 0x3e,
  0x1d, 0xa5, 0x71, 0x3e, 0x13, 0x41, 0xdb, 0x3d, 0xa1, 0x0d, 0x26, 0x3e,
  0x39, 0x77, 0x71, 0x3e, 0x00, 0xfe, 0xe8, 0xbe, 0xd1, 0x8f, 0x13, 0x3e,
  0x9c, 0x02, 0xe7, 0x3c, 0x8a, 0x75, 0x78, 0x3e, 0x94, 0x94, 0xa8, 0x3e,
  0xf1, 0xe5, 0x16, 0xbd, 0xa2, 0xe1, 0x34, 0xbe, 0x6a, 0x14, 0x3c, 0xbe,
  0xf8, 0x33, 0x57, 0xbe, 0x19, 0x5c, 0xf0, 0xbd, 0x60, 0x6b, 0x06, 0x3e,
  0x4a, 0xda, 0x39, 0x3e, 0xc6, 0x87, 0x49, 0x3e, 0x76, 0x9c, 0x16, 0xbd,
  0xd8, 0x74, 0xfe, 0xbc, 0xd7, 0x4e, 0x2d, 0xbe, 0x23, 0x31, 0x41, 0x3e,
  0x9e, 0xea, 0x4c, 0x3d, 0xe3, 0x5e, 0x28, 0xbe, 0xb7, 0x88, 0x06, 0xbd,
  0xbd, 0x42, 0x93, 0x3e, 0x14, 0x49, 0xcd, 0x3c, 0xe9, 0x8e, 0x63, 0x3e,
  0xbb, 0xda, 0x6e, 0x3e, 0x02, 0x87, 0x96, 0x3e, 0x9c, 0xeb, 0xbb, 0x3d,
  0x68, 0x60, 0xbc, 0x3d, 0x77, 0x05, 0x01, 0xbe, 0x1a, 0xa8, 0xb3, 0x3d,
  0xd8, 0x3f, 0x40, 0x3e, 0x7a, 0x96, 0x87, 0x3e, 0x47, 0xfe, 0xe2, 0xbb,
  0xfa, 0xbe, 0x82, 0x3e, 0xa9, 0xe9, 0x88, 0xbd, 0xf6, 0x4d, 0x05, 0x3e,
  0xd4, 0xb9, 0xf4, 0x3a, 0x19, 0x51, 0x78, 0x3e, 0x8c, 0x67, 0x28, 0x3e,
  0x3a, 0x25, 0x41, 0x3d, 0xac, 0x47, 0x40, 0xbe, 0x32, 0x1b, 0x65, 0x3e,
  0xee, 0x9a, 0x56, 0xbe, 0x24, 0x7e, 0x31, 0x3d, 0xad, 0x56, 0x19, 0xbe,
  0x17, 0x85, 0xf2, 0x3d, 0x0b, 0xbe, 0x86, 0xbe, 0xe1, 0xad, 0x6d, 0x3e,
  0xc9, 0x1d, 0x78, 0xbd, 0x93, 0xd9, 0xc7, 0x3d, 0x19, 0xe5, 0x1a, 0x3b,
  0xec, 0x75, 0x32, 0xbe, 0xee, 0xaa, 0xac, 0x3d, 0x7b, 0xf9, 0xb7, 0x3e,
  0xe5, 0xac, 0x01, 0x3e, 0x93, 0x73, 0x74, 0x3e, 0x59, 0xe3, 0xc3, 0xbe,
  0x2b, 0xce, 0xf5, 0x3e, 0xdb, 0x22, 0x89, 0xbe, 0x0a, 0xd5, 0x38, 0xbd,
  0x0d, 0x6d, 0xee, 0x3d, 0x2f, 0xc8, 0xe5, 0x3d, 0x7c, 0xc3, 0x99, 0xbd,
  0xa7, 0xf0, 0xd5, 0x3d, 0xe4, 0x02, 0x6a, 0xbd, 0x6a, 0xbf, 0x8c, 0xbe,
  0xe4, 0xb7, 0xe5, 0x3d, 0xca, 0x98, 0x01, 0x3e, 0xe6, 0x9d, 0x8f, 0x3e,
  0x2b, 0x12, 0x23, 0x3e, 0x3d, 0xe1, 0x9e, 0x3d, 0x60, 0xe1, 0x30, 0x3d,
  0xc9, 0x76, 0x6e, 0x3e, 0xdc, 0x85, 0x98, 0xbe, 0x05, 0xc7, 0x77, 0xbc,
  0x7d, 0xb4, 0x8f, 0xbd, 0xa8, 0xb8, 0xa7, 0x3e, 0x5d, 0xf7, 0xb6, 0x3e,
  0x57, 0xea, 0x0b, 0x3e, 0x28, 0x84, 0x03, 0xbe, 0x83, 0x16, 0x2d, 0xbe,
  0xfa, 0x7c, 0x08, 0x3e, 0x23, 0x9a, 0x90, 0xbb, 0xb7, 0xbc, 0xa0, 0x3e,
  0x91, 0xe6, 0xfb, 0x3d, 0xb0, 0x11, 0x14, 0x3e, 0x7d, 0x72, 0xc0, 0x3b,
  0xf2, 0x71, 0x9f, 0x3e, 0x6a, 0x65, 0xd7, 0x3d, 0x6d, 0xff, 0xcb, 0x3d,
  0xe6, 0x00, 0x68, 0x3e, 0xf3, 0xdc, 0x47, 0xbe, 0x78, 0x6d, 0x67, 0xbe,
  0xd4, 0xab, 0xfa, 0x3d, 0xfc, 0x48, 0x3b, 0xbe, 0x32, 0xeb, 0xac, 0x3e,
  0xf3, 0xe1, 0x6c, 0x3e, 0xe0, 0x43, 0x3b, 0x3e, 0x37, 0x1e, 0x41, 0x3e,
  0x98, 0xef, 0x85, 0x3d, 0x83, 0xb9, 0x16, 0xbe, 0x20, 0xf2, 0x01, 0xbb,
  0x3f, 0xe5, 0x7d, 0x3e, 0xd1, 0x4a, 0x9a, 0x3e, 0xb1, 0x38, 0x3c, 0x3e,
  0x92, 0xea, 0x30, 0x3e, 0xdc, 0x5b, 0xe8, 0x3d, 0x19, 0xf0, 0xa3, 0xbc,
  0xc4, 0x86, 0x02, 0xbd, 0x17, 0x6c, 0x69, 0xbb, 0x1b, 0x6e, 0xa2, 0x3d,
  0x8e, 0x8a, 0x7f, 0x3e, 0x6f, 0xb6, 0xfc, 0x3d, 0x4b, 0xaa, 0x1a, 0x3e,
  0x11, 0x17, 0xbb, 0x3c, 0xd9, 0xd9, 0x5a, 0xbd, 0x96, 0xa8, 0x34, 0x3d,
  0xf2, 0x49, 0x66, 0x3e, 0x4e, 0x49, 0x6c, 0xbe, 0xdf, 0x29, 0x9f, 0xbd,
  0xde, 0xea, 0x81, 0x3c, 0x0b, 0x58, 0x7f, 0x3e, 0xb9, 0xbe, 0x52, 0xbe,
  0x91, 0xfa, 0x5e, 0xbd, 0xd1, 0xf3, 0xb4, 0xbd, 0x50, 0xd8, 0xda, 0x3e,
  0x62, 0x5b, 0x42, 0x3d, 0x2b, 0x96, 0x93, 0x3d, 0x09, 0x1e, 0x32, 0xbe,
  0x12, 0xba, 0x5a, 0x3e, 0xb1, 0xd7, 0x6f, 0xbe, 0x84, 0x4a, 0x86, 0x3d,
  0x7b, 0xe6, 0xb3, 0x3d, 0xdb, 0xc0, 0xd2, 0x3e, 0xe5, 0x3c, 0x30, 0x3e,
  0x65, 0x27, 0xc6, 0x3e, 0x7f, 0xf0, 0x91, 0x3d, 0x43, 0x76, 0xed, 0xbe,
  0xff, 0xeb, 0xd1, 0x3d, 0xfe, 0xf8, 0x18, 0x3e, 0x72, 0xca, 0x7e, 0x3e,
  0xcb, 0x55, 0xbe, 0x3e, 0x5c, 0x9c, 0x93, 0x3c, 0x78, 0x88, 0x3f, 0xbe,
  0x87, 0x7c, 0x4a, 0xbb, 0x4a, 0x73, 0xd7, 0xbe, 0xb5, 0xec, 0x0e, 0xbe,
  0xb3, 0x5a, 0x24, 0xbe, 0x54, 0x8a, 0xa8, 0x3d, 0x38, 0xae, 0x87, 0x3e,
  0x31, 0x1e, 0x32, 0x3e, 0x0e, 0x9d, 0x79, 0xbd, 0xcf, 0x1c, 0x85, 0xbe,
  0x2e, 0x60, 0xf1, 0x3d, 0xe7, 0xbf, 0x23, 0xbe, 0xd4, 0x4c, 0x6d, 0x3e,
  0xcc, 0x49, 0x8f, 0x3e, 0xe8, 0xaa, 0x98, 0x3e, 0x12, 0x74, 0x18, 0x3e,
  0x10, 0x64, 0xda, 0x3d, 0xed, 0x8d, 0xaa, 0xbd, 0xfe, 0x0e, 0x46, 0x3c,
  0x97, 0x3a, 0x8c, 0xbc, 0xa4, 0x71, 0x8d, 0xbd, 0xcd, 0x21, 0x30, 0xbe,
  0xe0, 0xce, 0x0c, 0xbe, 0x34, 0x9d, 0x0e, 0x3b, 0xbc, 0x14, 0x1e, 0x3e,
  0xb3, 0xe1, 0x1a, 0x3e, 0x7c, 0x8d, 0x40, 0x3e, 0x6b, 0x75, 0x55, 0x3e,
  0xff, 0xb8, 0xab, 0xbc, 0x3a, 0x2e, 0x2b, 0xbd, 0x91, 0x6b, 0x1b, 0x3e,
  0xed, 0x3f, 0x38, 0x3e, 0xbe, 0x1b, 0x6b, 0x3e, 0x76, 0x4e, 0x9a, 0x3c,
  0x14, 0xbb, 0xa5, 0x3e, 0xea, 0xa1, 0x77, 0xbd, 0x9e, 0x3c, 0xda, 0x3d,
  0xaf, 0x57, 0x32, 0xbe, 0x0a, 0x36, 0xda, 0xbd, 0x3a, 0xdd, 0xdc, 0x3d,
  0x3c, 0xaa, 0xa4, 0xbd, 0xed, 0x7d, 0xe5, 0xbd, 0x61, 0xde, 0x0e, 0x3e,
  0xec, 0x78, 0xfa, 0x3d, 0xd9, 0xb0, 0x68, 0x3e, 0x1b, 0x12, 0xd4, 0xbd,
  0xf8, 0xc2, 0x14, 0x3e, 0x8f, 0x00, 0x87, 0xbe, 0x41, 0x49, 0xaa, 0xbc,
  0x67, 0x41, 0x01, 0xbd, 0x64, 0x53, 0xee, 0x3d, 0x7b, 0xa2, 0x6b, 0xbd,
  0x01, 0xcc, 0xe4, 0xbd, 0xdd, 0x80, 0x2e, 0x3e, 0xc4, 0x33, 0xd6, 0x3e,
  0xd0, 0x02, 0x2b, 0x3e, 0x89, 0x04, 0xb5, 0xbd, 0x7f, 0x6e, 0xa5, 0xbe,
  0x22, 0xb5, 0xf8, 0x3e, 0xe0, 0xd8, 0xd0, 0xbd, 0x27, 0x78, 0xd6, 0xbd,
  0x50, 0xc9, 0x3b, 0xbe, 0x13, 0x27, 0x60, 0x3e, 0xec, 0x68, 0x83, 0x3d,
  0x34, 0xd8, 0x20, 0x3e, 0xdf, 0x62, 0x94, 0x3d, 0x19, 0x75, 0x23, 0xbe,
  0xc9, 0x99, 0xab, 0x3e, 0xfd, 0xa7, 0x11, 0x3e, 0xda, 0xd3, 0x37, 0x3e,
  0x6f, 0xa1, 0xbc, 0x3e, 0xce, 0xe0, 0x2b, 0x3d, 0x79, 0xe0, 0x36, 0x3e,
  0xfb, 0x9c, 0xe0, 0x3c, 0x94, 0x7d, 0x98, 0xbe, 0x50, 0x63, 0xe9, 0xbc,
  0x01, 0xc4, 0xa9, 0xbd, 0xc5, 0xe9, 0x83, 0x3e, 0x86, 0x15, 0xf3, 0x3e,
  0x05, 0xbd, 0xa4, 0x3d, 0x76, 0x16, 0xda, 0xbc, 0xc7, 0xb5, 0xdb, 0xbd,
  0x2d, 0xe5, 0x27, 0xbd, 0x29, 0x69, 0x0e, 0x3e, 0x1b, 0x91, 0x98, 0x3e,
  0x00, 0x1b, 0xa0, 0x3d, 0x1c, 0x7f, 0x1a, 0x3e, 0xdc, 0x72, 0x0d, 0x3e,
  0xb9, 0x78, 0x82, 0x3d, 0xb2, 0xe5, 0x4c, 0xbe, 0x0c, 0xb3, 0x82, 0x3e,
  0xe0, 0x25, 0xad, 0x3d, 0x59, 0x40, 0xb1, 0x3d, 0x77, 0x3e, 0x9e, 0xbc,
  0x01, 0x26, 0x27, 0x3e, 0xb7, 0x30, 0x94, 0x3c, 0x2f, 0xed, 0x06, 0x3e,
  0xdb, 0xad, 0x77, 0x3e, 0x37, 0x04, 0x1d, 0xbd, 0x20, 0x28, 0x5e, 0x3e,
  0x26, 0x02, 0x70, 0xbc, 0x3f, 0xb8, 0xc3, 0xbd, 0x47, 0xa4, 0x01, 0x3e,
  0x85, 0x4c, 0xa4, 0x3d, 0xb5, 0xa3, 0x59, 0x3d, 0x13, 0x2c, 0x02, 0xbe,
  0x12, 0xa3, 0xc3, 0x3e, 0x82, 0xbf, 0x83, 0xbd, 0xff, 0xd6, 0x0f, 0xbd,
  0x25, 0x33, 0x96, 0xbe, 0x57, 0x39, 0xeb, 0x3d, 0xc9, 0x61, 0xca, 0x3d,
  0x06, 0x98, 0xcb, 0xbd, 0x2a, 0x8c, 0x93, 0xbd, 0xf1, 0xb4, 0x21, 0x3e,
  0x11, 0xcf, 0x04, 0xbe, 0x9e, 0x57, 0xd8, 0x3d, 0x80, 0xc8, 0x4f, 0xbe,
  0x94, 0xc7, 0xd3, 0x3e, 0xd4, 0xa1, 0xa3, 0xbc, 0xa6, 0x85, 0x25, 0x3d,
  0x60, 0x96, 0x77, 0x3d, 0x3a, 0xc8, 0x58, 0x3e, 0xd5, 0x98, 0x24, 0x3d,
  0xf1, 0xe7, 0xc4, 0xbd, 0xff, 0xc8, 0xf4, 0x3d, 0x1d, 0x87, 0xf1, 0x3e,
  0xd9, 0x93, 0x07, 0x3e, 0x72, 0x88, 0x5c, 0xbe, 0x0a, 0x0e, 0x27, 0xbe,
  0x1a, 0xe1, 0xaf, 0x3e, 0xec, 0x10, 0xac, 0xbe, 0x40, 0x95, 0x91, 0xbc,
  0x5c, 0x10, 0x95, 0xbd, 0x55, 0xa2, 0x68, 0x3e, 0x79, 0x81, 0x32, 0xbc,
  0x18, 0x93, 0x21, 0x3d, 0x45, 0xf7, 0x5a, 0xbb, 0xdb, 0xd2, 0x49, 0xbe,
  0x71, 0xfc, 0x62, 0x3e, 0x92, 0x73, 0xe1, 0x3c, 0x3c, 0x66, 0x25, 0x3e,
  0xeb, 0x60, 0x44, 0x3e, 0x73, 0x9c, 0x1f, 0x3e, 0x23, 0x18, 0xfb, 0xbd,
  0x82, 0x9f, 0x12, 0x3e, 0xe0, 0x37, 0x9f, 0xbe, 0x1c, 0xa5, 0x45, 0x3d,
  0xae, 0x7d, 0x9d, 0x3c, 0x86, 0x74, 0x82, 0x3e, 0x7a, 0x4f, 0x95, 0x3e,
  0x25, 0x59, 0x49, 0x3e, 0x13, 0x5b, 0x88, 0xbe, 0xde, 0xb5, 0x32, 0xbd,
  0xa8, 0xf9, 0x43, 0xbe, 0xa7, 0xd9, 0x9e, 0x3c, 0x30, 0x4f, 0x32, 0x3e,
  0xb2, 0x2e, 0x89, 0x3d, 0x53, 0x82, 0x46, 0x3e, 0x4f, 0x4c, 0x30, 0x3e,
  0xeb, 0xae, 0x2c, 0x3e, 0x78, 0x6d, 0x0d, 0x3e, 0x43, 0xa4, 0xb4, 0x3e,
  0xce, 0x6a, 0xb3, 0x3d, 0xc8, 0xba, 0xf0, 0xbd, 0xe0, 0xb8, 0x4f, 0xbd,
  0x6c, 0x68, 0xc0, 0x3c, 0x75, 0xa3, 0x19, 0x3e, 0xfb, 0x3a, 0xb6, 0x3e,
  0xac, 0xc4, 0xa2, 0xbd, 0x0f, 0x25, 0xa5, 0x3d, 0x1d, 0x0f, 0x45, 0x3e,
  0x70, 0x4e, 0x27, 0x3e, 0xed, 0xab, 0x3d, 0xbe, 0x09, 0xe8, 0x24, 0x3e,
  0x3a, 0x93, 0x0a, 0x3e, 0x9a, 0x1f, 0x9f, 0x3e, 0x4d, 0x8b, 0x88, 0x3d,
  0x43, 0xc3, 0x50, 0xbb, 0xe0, 0x98, 0xab, 0xbd, 0xfd, 0x46, 0xd9, 0xbd,
  0x9f, 0x82, 0xe8, 0xbd, 0x3b, 0xf2, 0x1b, 0x3e, 0x71, 0x89, 0x6c, 0x3e,
  0x77, 0xff, 0x8c, 0x3e, 0x87, 0x79, 0x6f, 0x3d, 0xb4, 0x40, 0x97, 0x3e,
  0xf5, 0xf1, 0x15, 0x3e, 0x1b, 0x72, 0x57, 0xbe, 0xd5, 0x08, 0x8d, 0x3e,
  0xc6, 0x12, 0xaa, 0x3e, 0x0b, 0x39, 0x02, 0xbd, 0x3c, 0x05, 0x96, 0x3c,
  0x9e, 0x1b, 0x1b, 0xbd, 0xdf, 0x8b, 0xc3, 0xbd, 0x94, 0xb4, 0x80, 0xbe,
  0xcd, 0x81, 0x2d, 0x3d, 0x8b, 0x25, 0x51, 0xbe, 0x65, 0x52, 0x9f, 0x3e,
  0x5d, 0x8d, 0x11, 0x3e, 0x6f, 0x95, 0x2d, 0x3e, 0xed, 0x46, 0xad, 0xbd,
  0x4c, 0x39, 0x88, 0x3e, 0x69, 0x88, 0x3b, 0xbe, 0x1a, 0x3f, 0x2d, 0xbd,
  0xb3, 0xd4, 0x79, 0x3c, 0x83, 0xb0, 0x5e, 0x3e, 0x4e, 0xf2, 0x8b, 0x3d,
  0x77, 0x88, 0xca, 0x3e, 0x59, 0x42, 0x3d, 0x3e, 0x40, 0x16, 0xa3, 0xbe,
  0xb5, 0x7d, 0x89, 0x3d, 0x03, 0x8f, 0xa2, 0x3c, 0x6a, 0xe7, 0xb3, 0x3e,
  0x49, 0x46, 0x62, 0x3e, 0x2e, 0x61, 0xbc, 0xbd, 0xe3, 0xa0, 0xad, 0x3d,
  0x31, 0xf9, 0xf6, 0x3c, 0x1e, 0x1a, 0x0b, 0xbf, 0xb7, 0x46, 0xed, 0xbd,
  0xdb, 0xa6, 0xb8, 0xbd, 0x59, 0xd3, 0x77, 0x3e, 0xea, 0x2c, 0x53, 0x3e,
  0xce, 0xf4, 0xd2, 0xbc, 0xb8, 0xa4, 0x6e, 0xbe, 0x73, 0xa6, 0xb8, 0x3d,
  0xff, 0xa1, 0x8a, 0xbe, 0x9b, 0xdb, 0x07, 0xbe, 0x76, 0x82, 0x0f, 0x3e,
  0x05, 0xa1, 0xb2, 0xba, 0xb0, 0x36, 0xe3, 0x3d, 0x56, 0x1e, 0xa5, 0xbe,
  0x34, 0x37, 0x83, 0xbe, 0xad, 0xf4, 0x50, 0xbe, 0x0a, 0x2c, 0xe7, 0xbe,
  0x81, 0x76, 0x82, 0xbd, 0x8c, 0x64, 0x50, 0xbe, 0x22, 0xf6, 0x8e, 0xbc,
  0x63, 0xfc, 0xb8, 0xbe, 0xdd, 0x4c, 0x9e, 0xbe, 0x9e, 0xb5, 0x6d, 0xbf,
  0xde, 0xf9, 0x81, 0xbe, 0xe5, 0xcb, 0xd4, 0xbe, 0xb6, 0xc9, 0xdd, 0xbe,
  0xaf, 0x01, 0x9e, 0xbe, 0xe8, 0x2f, 0xe6, 0xbe, 0x92, 0xbd, 0xb6, 0xbe,
  0x5e, 0x70, 0x03, 0xbf, 0xd5, 0xe7, 0x47, 0xbf, 0x50, 0xc1, 0x36, 0xbe,
  0xe2, 0xac, 0x45, 0xbf, 0xd0, 0xfb, 0xa7, 0xbe, 0x5c, 0x76, 0x01, 0xbe,
  0x42, 0xc5, 0x5b, 0xbe, 0x52, 0x9d, 0xd6, 0xbd, 0xf6, 0x3c, 0x23, 0x3e,
  0xa4, 0x54, 0x9c, 0x3d, 0x0f, 0xc5, 0xf8, 0xbc, 0x51, 0x48, 0x42, 0x3e,
  0x02, 0xeb, 0xa1, 0xbc, 0x54, 0x63, 0x9e, 0x3e, 0x1b, 0x04, 0x1b, 0x3e,
  0xe5, 0x06, 0xa2, 0xbe, 0x53, 0xdb, 0xa6, 0x3e, 0x30, 0x95, 0x80, 0x3e,
  0x88, 0x3f, 0xb6, 0x3e, 0x77, 0x56, 0x88, 0x3e, 0xad, 0xf7, 0xa2, 0x3e,
  0xa0, 0x87, 0xb1, 0x3e, 0xb1, 0x57, 0xd6, 0x3e, 0xeb, 0xf8, 0x99, 0xbe,
  0x89, 0xdc, 0x50, 0x3e, 0x3f, 0xfc, 0x79, 0x3e, 0xf3, 0x25, 0xb0, 0x3e,
  0x3f, 0xd3, 0xe9, 0xbc, 0xf6, 0x56, 0xac, 0xbc, 0xc4, 0x7b, 0x2c, 0x3e,
  0xf3, 0x2a, 0x63, 0x3e, 0xbd, 0x39, 0x92, 0xbe, 0x84, 0x11, 0x9d, 0x3e,
  0x47, 0x45, 0xaa, 0x3d, 0x67, 0x13, 0x00, 0x3e, 0xc8, 0x55, 0x90, 0x3d,
  0x5c, 0x91, 0x7f, 0x3e, 0xf8, 0x46, 0xaa, 0x3e, 0x32, 0xe6, 0x81, 0xbc,
  0xb7, 0x79, 0x30, 0xbe, 0xdf, 0x43, 0xc2, 0xbd, 0xcf, 0x2c, 0x48, 0x3e,
  0x02, 0x35, 0x47, 0x3e, 0x58, 0x7a, 0x1a, 0xbe, 0x96, 0x9d, 0xb1, 0x3d,
  0x46, 0xc4, 0x79, 0x3e, 0x98, 0xb7, 0x02, 0x3e, 0x03, 0x52, 0xa1, 0xbe,
  0x73, 0x39, 0xf4, 0x3c, 0x99, 0x1f, 0x05, 0xbd, 0xe7, 0x78, 0x99, 0x3e,
  0xfc, 0xa5, 0xa5, 0xbe, 0xf5, 0xd8, 0xa6, 0x3e, 0x9f, 0xd3, 0x83, 0x3e,
  0xec, 0xd2, 0x74, 0x3e, 0xe9, 0xc0, 0x8e, 0xbe, 0x72, 0xb8, 0xbd, 0xbd,
  0xf0, 0xa8, 0xfe, 0xbd, 0x0d, 0xfd, 0xa9, 0x3e, 0xa0, 0x09, 0x0d, 0xbd,
  0x1f, 0x87, 0x4a, 0xbd, 0xb5, 0xcf, 0xbc, 0xbd, 0x16, 0xe5, 0xaa, 0x3d,
  0xa9, 0x6d, 0x5f, 0x3c, 0x57, 0xd8, 0xf0, 0xbd, 0x7e, 0x9f, 0x60, 0xbd,
  0x06, 0xf0, 0x51, 0x3c, 0x2a, 0x50, 0x84, 0xbe, 0x5e, 0x99, 0x43, 0xbd,
  0xea, 0x08, 0xab, 0xbd, 0xa9, 0xcc, 0xe2, 0xbb, 0x5f, 0xe5, 0x1e, 0xbe,
  0xcf, 0x72, 0xb9, 0xbe, 0x42, 0x39, 0x0e, 0x3d, 0x3e, 0x99, 0x06, 0xbe,
  0xe4, 0xfd, 0x1c, 0xbe, 0x58, 0xaa, 0x84, 0xbe, 0xdc, 0xe8, 0xb4, 0xbe,
  0xe3, 0x5d, 0x65, 0xbe, 0x51, 0x11, 0xa4, 0xbd, 0x95, 0x2f, 0x30, 0x3c,
  0xd2, 0x70, 0xd7, 0xbd, 0xaf, 0x88, 0x99, 0x3d, 0x0d, 0xed, 0x27, 0xbe,
  0x37, 0x06, 0xa1, 0xbd, 0x85, 0x3d, 0x00, 0x3e, 0x71, 0xbd, 0x36, 0x3e,
  0xf2, 0x03, 0x01, 0xbd, 0xe4, 0x02, 0x7f, 0x3d, 0xa4, 0x73, 0x69, 0xbd,
  0x8f, 0x3e, 0x5a, 0x3e, 0xd1, 0x22, 0x1d, 0xbd, 0x10, 0xa7, 0xc6, 0xbd,
  0x30, 0x9d, 0x17, 0xbe, 0x3d, 0x51, 0x34, 0xbd, 0x30, 0xb1, 0x0a, 0x3d,
  0xd0, 0x33, 0x22, 0xbe, 0x7c, 0x37, 0xa5, 0xbd, 0x5d, 0xee, 0x53, 0xbe,
  0x5e, 0x7b, 0xa9, 0x3d, 0xb4, 0xdb, 0x13, 0xbd, 0x3e, 0xd3, 0xdd, 0xbd,
  0x9e, 0xf9, 0x77, 0xbd, 0x87, 0x0f, 0x26, 0x3e, 0xbc, 0x75, 0xac, 0xbe,
  0x88, 0x15, 0xc8, 0x3d, 0xc2, 0x79, 0x4e, 0x3e, 0xfe, 0xc2, 0x25, 0xbd,
  0x16, 0x1d, 0x8b, 0x3e, 0x0a, 0xad, 0x24, 0xbe, 0xd9, 0x46, 0x0b, 0x3d,
  0x03, 0x1b, 0xbc, 0xbd, 0x80, 0x15, 0xb9, 0xbd, 0x44, 0x4a, 0xbe, 0x3d,
  0x0d, 0x90, 0xdc, 0xbc, 0x71, 0xbe, 0x42, 0x3e, 0xc2, 0xc8, 0x43, 0x3d,
  0x01, 0x67, 0x38, 0xbb, 0x4d, 0x89, 0xfb, 0xbd, 0xe1, 0x30, 0xfe, 0xbd,
  0xf8, 0x61, 0x27, 0x3e, 0x3c, 0xb0, 0x8f, 0xbd, 0xe1, 0xf1, 0x00, 0xbf,
  0xd8, 0x0d, 0xc6, 0xbc, 0x21, 0x44, 0x6b, 0x3d, 0xe6, 0xb4, 0x07, 0x3e,
  0xa6, 0xa5, 0x10, 0x3d, 0xdf, 0x2e, 0x48, 0xbd, 0x2e, 0x7b, 0x47, 0xbe,
  0x91, 0x8a, 0x09, 0xbf, 0xd7, 0x35, 0x01, 0x3d, 0xeb, 0xd8, 0xc5, 0xbe,
  0xcd, 0xeb, 0xa3, 0xbd, 0xf6, 0x2f, 0x81, 0xbe, 0x20, 0x1b, 0x88, 0xbe,
  0xd6, 0x03, 0x40, 0xbe, 0x28, 0xc5, 0x3a, 0xbe, 0x72, 0xba, 0x12, 0xbf,
  0xe4, 0xde, 0x16, 0xbd, 0x46, 0x04, 0x6d, 0xbe, 0xde, 0xd2, 0x90, 0xbe,
  0xb6, 0x61, 0x48, 0xbe, 0x1f, 0x6a, 0x82, 0xbe, 0x6e, 0x3b, 0x5d, 0xbe,
  0xb5, 0x5e, 0xcc, 0xbe, 0x5c, 0xe2, 0xac, 0xbe, 0xd0, 0x9c, 0x13, 0x3e,
  0x93, 0x16, 0xf6, 0xbe, 0x58, 0x72, 0xd3, 0xbe, 0xe4, 0xbf, 0xc9, 0xbd,
  0xe0, 0x5c, 0x7f, 0xbe, 0x5d, 0x99, 0x9c, 0xbe, 0xaf, 0x65, 0x42, 0xbd,
  0xa1, 0xf5, 0x3c, 0x3e, 0xb3, 0xef, 0xa0, 0x3c, 0x2b, 0x0f, 0x07, 0x3d,
  0x21, 0x4b, 0x7b, 0x3e, 0xae, 0xe4, 0x88, 0x3e, 0x57, 0x1b, 0xa7, 0x3d,
  0x1f, 0xcf, 0xcb, 0xbe, 0x0b, 0x03, 0xcf, 0x3d, 0xe6, 0xa9, 0x80, 0xbb,
  0x6c, 0x28, 0x2e, 0x3e, 0x21, 0x1b, 0x75, 0x3e, 0xde, 0x8f, 0x73, 0x3e,
  0x58, 0xe1, 0xef, 0x3e, 0x2f, 0x58, 0x78, 0x3e, 0x71, 0xdc, 0x88, 0xbe,
  0x34, 0x9e, 0xf6, 0x3d, 0x86, 0x11, 0xad, 0x3e, 0x84, 0x95, 0xcb, 0x3e,
  0x89, 0x26, 0x3e, 0x3e, 0x83, 0xfb, 0x7d, 0x3e, 0x3e, 0x0a, 0xa9, 0x3e,
  0xb9, 0x40, 0xc6, 0x3e, 0x91, 0xe9, 0x7b, 0xbd, 0x57, 0xff, 0xf5, 0x3d,
  0xd1, 0xa1, 0x1a, 0xbc, 0x6d, 0x15, 0x7f, 0xbd, 0x86, 0xda, 0xb8, 0x3d,
  0xd4, 0xfc, 0x98, 0x3d, 0xfa, 0x7f, 0xcd, 0x3d, 0x87, 0x79, 0xbd, 0xbd,
  0x6a, 0x85, 0xec, 0xbd, 0x0f, 0xd4, 0x84, 0x3e, 0xf6, 0x72, 0x2c, 0x3e,
  0xf7, 0xaf, 0xa7, 0xbc, 0x53, 0x5b, 0x43, 0x3d, 0x7c, 0xd9, 0xc1, 0x3d,
  0x09, 0x23, 0xbf, 0x3e, 0xc7, 0x22, 0xfa, 0xbc, 0xec, 0x8a, 0x71, 0xbe,
  0x52, 0xb5, 0x16, 0x3e, 0x47, 0xd1, 0xb5, 0xbd, 0xe2, 0x79, 0x82, 0x3e,
  0xf8, 0x11, 0xac, 0xbe, 0x29, 0x99, 0x5b, 0x3e, 0x9a, 0xf5, 0x30, 0x3e,
  0x5a, 0x79, 0xee, 0x3d, 0x49, 0x8b, 0xc8, 0xbe, 0x58, 0x80, 0x6a, 0x3e,
  0x7a, 0xf9, 0x22, 0x3e, 0x84, 0x24, 0x1c, 0x3d, 0xa3, 0x0a, 0x06, 0x3e,
  0x4f, 0x19, 0x79, 0x3d, 0x7d, 0x50, 0x1e, 0x3e, 0xcb, 0x9f, 0x8d, 0x3d,
  0x4d, 0x6a, 0xa6, 0x3e, 0x25, 0x60, 0xb7, 0x3d, 0xf2, 0xd6, 0x29, 0x3e,
  0xf4, 0x52, 0x26, 0x3e, 0xf6, 0x55, 0x97, 0xbd, 0x3d, 0xce, 0xfa, 0xbc,
  0x8b, 0xcc, 0xcf, 0xbd, 0x9b, 0xcd, 0x12, 0xbe, 0x94, 0x0b, 0x27, 0x3d,
  0x98, 0x66, 0xb8, 0x3d, 0xa7, 0x8e, 0xb7, 0x3e, 0x04, 0x2a, 0x92, 0xbd,
  0xdf, 0xe1, 0xa7, 0x3d, 0x7f, 0xec, 0x0e, 0xbe, 0xf4, 0x05, 0x02, 0xbe,
  0x86, 0xa5, 0xeb, 0xbd, 0x9e, 0x79, 0xa1, 0x3d, 0x93, 0xfd, 0x2c, 0x3e,
  0x93, 0xa4, 0x49, 0x3e, 0xdf, 0x51, 0xec, 0xbd, 0xe4, 0xad, 0xc4, 0x3d,
  0x10, 0xbb, 0x39, 0xbe, 0xdd, 0xd3, 0x25, 0x3e, 0x9d, 0x72, 0x87, 0x3c,
  0x0f, 0xf4, 0xa0, 0x3e, 0x5a, 0x7a, 0x82, 0xbe, 0x86, 0x40, 0xba, 0xbc,
  0xbf, 0x6a, 0xd3, 0xbc, 0x7d, 0xb8, 0x52, 0x3d, 0x93, 0x45, 0x5d, 0xbd,
  0xd0, 0x0c, 0x86, 0xbe, 0xb5, 0xef, 0x79, 0x3d, 0xcf, 0x9f, 0xd4, 0x3e,
  0x4a, 0xc6, 0x37, 0x3e, 0x05, 0x3b, 0x36, 0x3e, 0x44, 0x45, 0x18, 0xbe,
  0x19, 0x3c, 0x96, 0x3e, 0x45, 0xcb, 0x84, 0xbe, 0x74, 0x25, 0x37, 0x3d,
  0x31, 0xff, 0xce, 0x3d, 0xd0, 0x97, 0x21, 0x3e, 0x70, 0xa1, 0x43, 0x3e,
  0x82, 0x2b, 0x80, 0x3e, 0xd9, 0x12, 0x84, 0xbd, 0x47, 0x2c, 0x72, 0xbe,
  0x39, 0xc1, 0x2f, 0x3e, 0xd7, 0xdc, 0x0c, 0x3d, 0x61, 0x57, 0xc6, 0x3e,
  0x43, 0xbe, 0x43, 0x3e, 0x02, 0xcb, 0x65, 0x3e, 0x2d, 0xdd, 0x43, 0xbd,
  0x49, 0xb8, 0xf7, 0x3d, 0x7e, 0x4f, 0x4d, 0xbd, 0x66, 0x85, 0x20, 0x3c,
  0xb8, 0x27, 0x93, 0x3d, 0x3f, 0x5a, 0xd1, 0x3d, 0xdf, 0xda, 0x01, 0x3f,
  0xad, 0x6f, 0x3a, 0x3d, 0x95, 0x20, 0x3d, 0xbe, 0x81, 0x0e, 0xa6, 0xbc,
  0xa2, 0x43, 0x2a, 0xbe, 0xc8, 0x35, 0x71, 0xbc, 0x68, 0xbf, 0x57, 0x3e,
  0xf9, 0xda, 0x91, 0x3c, 0xc7, 0x3c, 0x0b, 0x3d, 0xb9, 0x33, 0x02, 0xbf,
  0x0a, 0x97, 0xcc, 0xbd, 0x64, 0xea, 0xba, 0xbd, 0xd7, 0x3a, 0x26, 0xbf,
  0xe4, 0x50, 0x24, 0x3e, 0xed, 0x6b, 0x8f, 0xbd, 0xfa, 0xe2, 0x54, 0x3a,
  0xd1, 0xad, 0x76, 0xbe, 0x3f, 0x90, 0xff, 0xbe, 0xa9, 0x1d, 0x32, 0xbf,
  0x21, 0xe0, 0x88, 0x3e, 0x97, 0xca, 0x13, 0xbf, 0x53, 0x08, 0xaf, 0xbe,
  0xf2, 0x1a, 0xe6, 0xbd, 0x83, 0x65, 0x6e, 0x3d, 0xc9, 0xa7, 0x68, 0xbe,
  0xc4, 0x1c, 0xed, 0xbe, 0x52, 0x3c, 0x3a, 0xbf, 0x7b, 0xbb, 0xe5, 0xbd,
  0xb5, 0x5b, 0x38, 0xbf, 0xae, 0x6c, 0xb8, 0xbe, 0xc6, 0x29, 0x11, 0x3e,
  0x18, 0x79, 0x1f, 0xbe, 0x32, 0x96, 0xca, 0xbe, 0x82, 0xd8, 0x3c, 0xbc,
  0x26, 0xc0, 0x34, 0x3e, 0x53, 0xae, 0xe2, 0x3d, 0x13, 0x79, 0x5c, 0xbd,
  0xc3, 0x89, 0x69, 0x3e, 0x5b, 0xe7, 0x1c, 0x3e, 0xfc, 0x75, 0xa7, 0x3e,
  0x0d, 0x8b, 0x3a, 0xbe, 0x44, 0x00, 0x0d, 0x3f, 0x47, 0x35, 0x3a, 0x3e,
  0x14, 0xfb, 0x2b, 0x3e, 0xdc, 0x51, 0xcb, 0x3e, 0x62, 0xd3, 0x91, 0x3b,
  0x8a, 0x9c, 0x01, 0x3f, 0xd6, 0x6d, 0xa6, 0x3e, 0xfa, 0xd4, 0xac, 0xbe,
  0x15, 0x15, 0x56, 0x3e, 0xf6, 0x52, 0x02, 0x3e, 0xc7, 0x47, 0x82, 0x3e,
  0xa0, 0x34, 0x22, 0x3e, 0xe4, 0x5c, 0xd2, 0x3d, 0x5c, 0x1a, 0x81, 0x3e,
  0x89, 0x3a, 0xb3, 0x3e, 0x68, 0x18, 0x29, 0xbd, 0xfc, 0x7b, 0xea, 0x3c,
  0x87, 0x5b, 0x84, 0xbe, 0x2a, 0xd2, 0xcb, 0x3d, 0x87, 0x10, 0x1a, 0xbd,
  0xb9, 0x41, 0x98, 0x3d, 0xe7, 0x3e, 0x32, 0x3e, 0x24, 0xe6, 0x30, 0xbd,
  0x92, 0xc6, 0x7e, 0xbd, 0x83, 0x81, 0x85, 0x3e, 0x5e, 0x8e, 0x1b, 0x3e,
  0x79, 0x3d, 0x2f, 0x3e, 0x3f, 0x8b, 0xa6, 0x3e, 0x2e, 0x8c, 0xb3, 0x3c,
  0x49, 0xac, 0x08, 0x3e, 0x7a, 0xf3, 0xfe, 0xbd, 0x71, 0xa5, 0x45, 0xbe,
  0x52, 0x2f, 0x5b, 0x3e, 0xaf, 0xdd, 0x0d, 0x3e, 0x2f, 0xa2, 0xa9, 0x3e,
  0x07, 0x73, 0x72, 0xbe, 0x06, 0x70, 0x0b, 0x3f, 0xa7, 0x7d, 0xb6, 0xbd,
  0x94, 0x8a, 0x7f, 0x3e, 0x7e, 0x4e, 0x14, 0xbe, 0xe7, 0x3a, 0x4b, 0x3e,
  0x9d, 0x17, 0x13, 0xbe, 0xc3, 0xda, 0x1f, 0xbe, 0x3a, 0x2c, 0x83, 0xbd,
  0xcd, 0x14, 0xf5, 0xbc, 0xad, 0xa1, 0xdd, 0x3d, 0xfb, 0xb3, 0x8f, 0xbe,
  0x1b, 0xe9, 0x4c, 0x3e, 0x54, 0xff, 0x1b, 0xbe, 0x09, 0xd5, 0xb8, 0x3d,
  0xbc, 0x6b, 0x71, 0x3e, 0x86, 0x1f, 0xf9, 0x3c, 0x35, 0x85, 0x88, 0x3e,
  0x54, 0xc3, 0x2d, 0xbe, 0x4b, 0xf2, 0xd3, 0x3c, 0x79, 0x79, 0x81, 0x3e,
  0xdc, 0xd8, 0x94, 0x3e, 0xe9, 0xba, 0x60, 0x3d, 0xf1, 0x9d, 0xce, 0xbc,
  0x46, 0xeb, 0xaa, 0x3e, 0xea, 0xd0, 0xa9, 0x3c, 0xe6, 0x78, 0x9a, 0x3c,
  0x60, 0x6d, 0x0d, 0xbe, 0x42, 0xcf, 0x27, 0x3c, 0x71, 0xfc, 0x8e, 0x3e,
  0x6f, 0x1d, 0x5d, 0x3c, 0x7e, 0xe1, 0x5e, 0xbd, 0x73, 0x26, 0xe1, 0xbb,
  0x26, 0x13, 0x86, 0x3d, 0x29, 0x23, 0x2a, 0x3d, 0xe1, 0x88, 0x49, 0xbe,
  0x97, 0x7b, 0x7d, 0x3e, 0x2c, 0x07, 0x7c, 0x3d, 0x10, 0xe6, 0xf9, 0x3d,
  0xa5, 0xb4, 0xaa, 0xbc, 0x90, 0xdb, 0x44, 0x3e, 0xd0, 0x13, 0x14, 0x3e,
  0xe5, 0xf5, 0x0d, 0xbe, 0xea, 0x11, 0xcc, 0xbc, 0x70, 0xff, 0x20, 0x3f,
  0xc0, 0x2f, 0x35, 0x3e, 0x91, 0x25, 0xad, 0xbe, 0x13, 0xef, 0x6c, 0xbe,
  0x01, 0xb8, 0x5a, 0x3e, 0x8e, 0x9e, 0x98, 0xbe, 0xc9, 0x1a, 0xb1, 0xbc,
  0x58, 0x63, 0x47, 0xbe, 0x47, 0x4a, 0x9a, 0x3e, 0xc1, 0x3a, 0x92, 0xbd,
  0xdb, 0xb1, 0x6c, 0x3e, 0x1e, 0x79, 0x9c, 0xbd, 0xe7, 0x9d, 0xe1, 0xbe,
  0x89, 0x7b, 0x64, 0x3e, 0x36, 0x10, 0x58, 0xbc, 0xc0, 0x3c, 0xad, 0x3d,
  0x7e, 0xf3, 0x74, 0x3e, 0x67, 0x7d, 0x5a, 0x3d, 0x57, 0x16, 0x5d, 0x3e,
  0x63, 0x5c, 0xbd, 0x3d, 0x50, 0x06, 0x47, 0xbe, 0xf2, 0x11, 0x91, 0x3c,
  0xa7, 0x32, 0x4a, 0x3d, 0x91, 0x2a, 0x84, 0x3e, 0x15, 0x57, 0x1a, 0x3f,
  0xf4, 0xcb, 0x37, 0xbb, 0xd9, 0x93, 0x28, 0xbe, 0x4c, 0x9d, 0xe0, 0xbd,
  0x04, 0x99, 0x28, 0xbe, 0x75, 0x95, 0x57, 0xbd, 0x85, 0x3d, 0x5c, 0x3e,
  0x91, 0x79, 0x98, 0x3d, 0xa1, 0x1b, 0x7a, 0x3e, 0x0a, 0x22, 0x6c, 0x3e,
  0x3a, 0xa4, 0x81, 0xbd, 0x36, 0x5f, 0x47, 0xbe, 0xee, 0x7f, 0x18, 0x3d,
  0x68, 0x66, 0x5c, 0xbd, 0xf4, 0x39, 0x10, 0x3b, 0xcd, 0x5b, 0x22, 0xbe,
  0x56, 0x67, 0x58, 0x3e, 0x2f, 0x18, 0x11, 0xbe, 0xd2, 0x36, 0x96, 0x3e,
  0x69, 0xdd, 0x61, 0x3e, 0x54, 0xd6, 0xdc, 0xbd, 0xf8, 0xde, 0xc6, 0x3e,
  0x5b, 0xc4, 0x1a, 0xbe, 0x5e, 0x52, 0x2e, 0x3d, 0xad, 0xae, 0xd6, 0x3d,
  0x72, 0xae, 0x9c, 0x3e, 0xaf, 0xcb, 0x8f, 0x3c, 0x00, 0x9a, 0x88, 0xbd,
  0x9d, 0xdb, 0xa9, 0x3e, 0x17, 0x7f, 0xdf, 0xbb, 0x0c, 0x5b, 0x16, 0x3e,
  0x5d, 0xf0, 0x90, 0xbe, 0xdd, 0x7a, 0x7f, 0x3e, 0xc9, 0x35, 0x30, 0x3e,
  0xa2, 0x27, 0x89, 0x3d, 0xa9, 0x01, 0x08, 0xbe, 0x2e, 0x84, 0x3e, 0x3e,
  0xba, 0x71, 0x17, 0x3d, 0x96, 0x5b, 0xc8, 0xbd, 0x5d, 0x10, 0xb4, 0xbd,
  0xc8, 0x51, 0xb8, 0x3e, 0x42, 0x44, 0x54, 0xbe, 0xd7, 0xe3, 0xc6, 0x3d,
  0x32, 0x4a, 0x99, 0x3c, 0x5c, 0xa5, 0x96, 0x3e, 0xbc, 0xf2, 0x51, 0x3e,
  0x1e, 0x0c, 0x96, 0x3d, 0xe2, 0x62, 0x52, 0x3e, 0x41, 0x8a, 0xef, 0x3e,
  0xa7, 0xfd, 0x16, 0x3c, 0x36, 0xca, 0x82, 0xbe, 0x19, 0x25, 0x8f, 0xbe,
  0x89, 0x51, 0xc5, 0x3e, 0x4a, 0xc9, 0x8d, 0xbe, 0xa6, 0xa3, 0x9f, 0xbc,
  0x6a, 0xf8, 0x2c, 0xbe, 0x84, 0x93, 0xee, 0x3e, 0x0d, 0x64, 0x42, 0xbd,
  0xc0, 0x0f, 0xb9, 0x3d, 0x54, 0x55, 0x3a, 0x3c, 0x64, 0x01, 0x85, 0xbe,
  0xc0, 0x92, 0x8f, 0x3e, 0xaa, 0x48, 0xda, 0xbb, 0x0c, 0x90, 0x52, 0x3e,
  0x5a, 0xcf, 0x48, 0x3e, 0x6f, 0xcf, 0xc2, 0x3c, 0x2b, 0x16, 0x55, 0x3e,
  0x1e, 0x46, 0x82, 0x3e, 0x6f, 0x5a, 0x41, 0xbe, 0x7e, 0x31, 0x0f, 0x3e,
  0x61, 0x9a, 0x0f, 0x3d, 0x0e, 0x1b, 0xb2, 0x3e, 0xde, 0x67, 0xc1, 0x3e,
  0xf5, 0x0c, 0x57, 0xbd, 0x06, 0xfe, 0x8d, 0xbd, 0x76, 0x39, 0x1c, 0xbb,
  0xfe, 0x2e, 0x4a, 0xbe, 0x0d, 0x7f, 0x3b, 0x3c, 0x64, 0x89, 0xfd, 0x3d,
  0x27, 0x9e, 0xd6, 0x3d, 0x9d, 0xd4, 0x1b, 0x3e, 0xb6, 0xf1, 0xff, 0xff,
  0x10, 0x00, 0x00, 0x00, 0x09, 0x00, 0x00, 0x00, 0x1c, 0x00, 0x00, 0x00,
  0x3c, 0x00, 0x00, 0x00, 0x04, 0x00, 0x00, 0x00, 0x10, 0x00, 0x00, 0x00,
  0x03, 0x00, 0x00, 0x00, 0x03, 0x00, 0x00, 0x00, 0x08, 0x00, 0x00, 0x00,
  0x1e, 0x00, 0x00, 0x00, 0x73, 0x65, 0x71, 0x75, 0x65, 0x6e, 0x74, 0x69,
  0x61, 0x6c, 0x5f, 0x32, 0x33, 0x2f, 0x63, 0x6f, 0x6e, 0x76, 0x32, 0x64,
  0x5f, 0x37, 0x31, 0x2f, 0x43, 0x6f, 0x6e, 0x76, 0x32, 0x44, 0x00, 0x00,
  0x40, 0xf1, 0xff, 0xff, 0x1e, 0xf2, 0xff, 0xff, 0x04, 0x00, 0x00, 0x00,
  0x00, 0x08, 0x00, 0x00, 0xca, 0x1a, 0xea, 0xbd, 0xac, 0x7d, 0x3c, 0x3d,
  0x92, 0x42, 0x99, 0x3d, 0x1e, 0x48, 0x45, 0xbd, 0x09, 0xd1, 0x49, 0x3e,
  0x58, 0x3b, 0x84, 0x3e, 0x97, 0xb0, 0xc2, 0x3e, 0x62, 0x08, 0x00, 0xbb,
  0x33, 0x53, 0x20, 0x3d, 0x1c, 0x19, 0xa4, 0x3d, 0xc1, 0xb6, 0x25, 0x3e,
  0xea, 0xd3, 0xdd, 0x3c, 0xa8, 0xcd, 0x96, 0x3e, 0x2e, 0xba, 0x6b, 0xbd,
  0x40, 0x2b, 0xf2, 0x3c, 0xd7, 0xee, 0xb0, 0xbd, 0x38, 0x81, 0x47, 0x3c,
  0xb5, 0x76, 0xbb, 0xbd, 0x2c, 0x67, 0x66, 0x3e, 0x53, 0x51, 0xb9, 0x3c,
  0xed, 0x60, 0x4d, 0x3e, 0xa4, 0xfe, 0x3f, 0x3e, 0xa5, 0x45, 0xa5, 0x3e,
  0x1d, 0x72, 0x2f, 0xbe, 0x98, 0x84, 0x95, 0x3d, 0xc3, 0x53, 0x4d, 0x3e,
  0x50, 0xdc, 0xf3, 0x3d, 0x9a, 0xa4, 0x3a, 0xbd, 0x59, 0x9d, 0x57, 0x3e,
  0xa8, 0x85, 0x46, 0xbd, 0x2a, 0x5b, 0x09, 0xbd, 0x02, 0x9e, 0xac, 0xbc,
  0xe3, 0x8a, 0xc9, 0xbd, 0x03, 0xb9, 0x2d, 0xbe, 0x85, 0x0d, 0x03, 0x3c,
  0x55, 0x85, 0x07, 0x3e, 0x0d, 0xea, 0x1a, 0x3d, 0xd5, 0x15, 0x92, 0xbd,
  0x8b, 0xaf, 0xfe, 0x3d, 0xcf, 0xcf, 0x08, 0x3e, 0xa4, 0xfb, 0xed, 0x3d,
  0x70, 0xdd, 0x5e, 0x3e, 0xfd, 0xaa, 0x85, 0x3e, 0x64, 0x7e, 0xdd, 0xbc,
  0xe4, 0x71, 0x15, 0xbb, 0xc8, 0x5b, 0xe9, 0x3d, 0x02, 0xe5, 0xea, 0x3d,
  0x2e, 0xfe, 0x5a, 0xbd, 0x37, 0x9c, 0x16, 0x3e, 0xe2, 0x9b, 0x69, 0xbe,
  0x8b, 0x8a, 0x09, 0xbe, 0x27, 0x9a, 0x71, 0x3e, 0x0f, 0x11, 0xd2, 0x3d,
  0x91, 0x78, 0x1d, 0x3d, 0x4e, 0x61, 0x1c, 0xbe, 0xad, 0x91, 0x78, 0x3e,
  0x17, 0x1f, 0x0d, 0x3e, 0xe4, 0xba, 0x31, 0x3e, 0x5f, 0xa6, 0xc4, 0x3e,
  0x7e, 0x4a, 0x09, 0x3c, 0x38, 0xf6, 0xdb, 0xbd, 0x27, 0xb4, 0xdd, 0xbb,
  0x61, 0x79, 0x05, 0x3f, 0x38, 0x48, 0x6f, 0xbe, 0x67, 0xfb, 0x88, 0xbd,
  0x94, 0xdb, 0x4b, 0x3e, 0x3a, 0x38, 0x14, 0x3f, 0xe4, 0xae, 0x46, 0xbe,
  0x6f, 0x53, 0x3d, 0xbd, 0x5a, 0x95, 0xc5, 0x3d, 0x64, 0x9f, 0x8d, 0x3e,
  0x4e, 0x59, 0x0f, 0xbe, 0xed, 0x7a, 0xc4, 0x3c, 0x20, 0x86, 0x07, 0x3e,
  0x3d, 0x25, 0xa5, 0x3e, 0x49, 0x01, 0xc2, 0xbd, 0xef, 0x28, 0x9b, 0x3e,
  0xa7, 0xb0, 0x25, 0xbe, 0x64, 0x7a, 0xa4, 0xbd, 0xcf, 0xce, 0xe3, 0xbd,
  0x86, 0xa2, 0x79, 0x3c, 0x15, 0x7b, 0x97, 0x3e, 0xfb, 0x29, 0xcc, 0x3e,
  0xe6, 0x4c, 0x03, 0xbe, 0x6b, 0xae, 0x92, 0x3e, 0x39, 0x46, 0x19, 0x3d,
  0x23, 0x49, 0x24, 0x3e, 0x94, 0x7f, 0x37, 0xbd, 0xaa, 0x0a, 0x0a, 0xba,
  0x2d, 0x95, 0x6f, 0x3d, 0xf3, 0xa4, 0x1e, 0x3e, 0x15, 0xf3, 0x21, 0x3e,
  0xbc, 0x97, 0x9a, 0x3e, 0x9a, 0xf4, 0x22, 0xbe, 0xac, 0xd7, 0x35, 0xbd,
  0xdb, 0x7b, 0x66, 0xbd, 0xd6, 0xe9, 0x57, 0x3c, 0xa7, 0xe1, 0x7b, 0x3e,
  0x86, 0x96, 0xee, 0x3e, 0x5e, 0x13, 0x7c, 0xbc, 0xca, 0xd7, 0xd3, 0x3d,
  0xb1, 0x86, 0x9c, 0xbd, 0xbd, 0xe2, 0x9f, 0x3e, 0x59, 0x6e, 0x2f, 0xbe,
  0x2a, 0x9e, 0x6f, 0xbc, 0x12, 0xa3, 0x0b, 0xbe, 0x24, 0x80, 0xf3, 0x3d,
  0xd9, 0xc8, 0x1f, 0x3e, 0x11, 0x44, 0x23, 0x3d, 0x66, 0x2c, 0x23, 0xbe,
  0x74, 0xbd, 0x24, 0xbd, 0x85, 0x9e, 0xf4, 0x3c, 0x4e, 0x56, 0x4f, 0x3e,
  0x65, 0x85, 0x91, 0x3e, 0xc3, 0x06, 0xc6, 0x3e, 0x87, 0x24, 0x7a, 0xbe,
  0x6f, 0x67, 0xb8, 0x3c, 0x20, 0xb0, 0x14, 0x3d, 0xd0, 0x48, 0xcd, 0x3e,
  0xe6, 0x7e, 0x99, 0x3d, 0x51, 0x61, 0x10, 0x3e, 0x81, 0xc0, 0x0e, 0x3c,
  0xff, 0x91, 0x78, 0x3e, 0x5f, 0xc0, 0xb1, 0xbd, 0xe0, 0x29, 0x82, 0x3e,
  0xa3, 0x14, 0xa1, 0xbc, 0x46, 0x3e, 0x74, 0xbd, 0x38, 0xdd, 0x12, 0x3e,
  0x47, 0xa3, 0x6a, 0x3e, 0x9e, 0x8f, 0xf0, 0x3d, 0xe2, 0x88, 0x40, 0x3d,
  0xc3, 0xfe, 0x0e, 0xbe, 0x97, 0x7c, 0x2c, 0x3d, 0x38, 0x85, 0x1b, 0xbd,
  0x65, 0x43, 0x9a, 0x3e, 0x8c, 0x91, 0x88, 0x3c, 0x93, 0xad, 0x8d, 0x3e,
  0x05, 0xe3, 0xe9, 0xbd, 0x1c, 0x8a, 0x91, 0x3e, 0x10, 0x87, 0x28, 0x3e,
  0x20, 0x35, 0x87, 0x3e, 0xe0, 0xd5, 0x38, 0xbe, 0xc2, 0xba, 0xfa, 0x3c,
  0x48, 0xfe, 0x89, 0x3e, 0xb6, 0x95, 0x7d, 0x3d, 0xf6, 0xf0, 0x3d, 0x3e,
  0x52, 0x61, 0xc5, 0x3e, 0xa2, 0x18, 0x3e, 0x3c, 0xb8, 0xfb, 0x96, 0x3d,
  0x44, 0x91, 0x2f, 0xbd, 0xf6, 0xb2, 0x94, 0x3e, 0xfa, 0xad, 0x29, 0xbe,
  0x97, 0x2c, 0x6c, 0x3e, 0x8a, 0x17, 0xa0, 0x3d, 0xd0, 0x09, 0x65, 0x3e,
  0xd7, 0x1b, 0x70, 0x3e, 0x2e, 0x7f, 0xa3, 0x3e, 0x2e, 0x08, 0xab, 0xbd,
  0xcc, 0x73, 0x81, 0x3e, 0x8d, 0x07, 0x86, 0x3e, 0xe5, 0x17, 0x27, 0x3e,
  0x98, 0x32, 0x73, 0x3e, 0xf0, 0xd7, 0xd5, 0x3e, 0xb4, 0xea, 0xa6, 0xbd,
  0x56, 0x5e, 0x52, 0x3e, 0x98, 0xbb, 0xe5, 0x3d, 0xbd, 0x85, 0xe1, 0x3c,
  0x55, 0xb0, 0x4a, 0x3e, 0xd4, 0xdb, 0x67, 0x3e, 0x89, 0x5c, 0x09, 0x3e,
  0x72, 0x5a, 0x9d, 0x3e, 0x2f, 0x66, 0x51, 0x3c, 0x19, 0x9c, 0x05, 0x3d,
  0x22, 0x8c, 0x24, 0x3e, 0x57, 0x9b, 0x76, 0x3e, 0xdb, 0x0b, 0x69, 0x3c,
  0x52, 0xa1, 0x4d, 0x3e, 0xb3, 0xac, 0x32, 0x3e, 0x75, 0x1d, 0x6d, 0x3e,
  0xc8, 0x75, 0x2d, 0x3d, 0xec, 0xa2, 0x6f, 0x3e, 0xb9, 0x41, 0x4c, 0xbd,
  0x19, 0x91, 0x3b, 0x3e, 0x45, 0x44, 0x6c, 0x3e, 0xb7, 0xf1, 0x58, 0x3d,
  0x83, 0xd3, 0x92, 0xbd, 0xc8, 0x2c, 0x9a, 0x3e, 0x64, 0xe8, 0xad, 0x3d,
  0x41, 0xfd, 0xcd, 0x3b, 0x15, 0xe6, 0x87, 0x3e, 0x18, 0x84, 0x29, 0x3e,
  0xb5, 0x53, 0x4f, 0xbe, 0x61, 0x0d, 0xec, 0x3d, 0x18, 0xe4, 0x54, 0xbc,
  0xb3, 0xef, 0x78, 0x3e, 0x29, 0xfa, 0xb3, 0x3d, 0x0e, 0x7e, 0x58, 0x3e,
  0x30, 0xd0, 0x95, 0xbd, 0x28, 0xce, 0xb6, 0x3e, 0x43, 0x91, 0x18, 0x3e,
  0x44, 0x73, 0xa1, 0x3e, 0x80, 0x96, 0xf0, 0x3d, 0x21, 0x6b, 0x3e, 0x3f,
  0x05, 0xad, 0x1f, 0xbe, 0x46, 0x37, 0x15, 0xbd, 0xee, 0xb2, 0x42, 0x3e,
  0x6c, 0x9b, 0x80, 0x3f, 0x96, 0xb1, 0x36, 0xbe, 0x81, 0x37, 0x6d, 0x3e,
  0x34, 0x28, 0xae, 0x3d, 0xe4, 0x83, 0x04, 0x3e, 0x02, 0x4d, 0x15, 0xbd,
  0x15, 0x12, 0x1b, 0x3e, 0x9e, 0xae, 0xe1, 0x3c, 0x32, 0xf5, 0x9c, 0xbc,
  0xb2, 0xd9, 0x8b, 0x3d, 0x63, 0x8b, 0x18, 0x3e, 0xe4, 0x74, 0x0b, 0x3e,
  0xc1, 0x27, 0x03, 0x3f, 0x52, 0x9f, 0x3b, 0x3e, 0x89, 0xfb, 0x5d, 0x3d,
  0x42, 0xab, 0x64, 0x3e, 0x12, 0x69, 0x7a, 0x3f, 0xef, 0xa3, 0xd2, 0xbb,
  0x8f, 0x71, 0x6d, 0x3d, 0x86, 0x42, 0xc3, 0x3d, 0x41, 0x9c, 0x93, 0x3c,
  0xbc, 0x99, 0x14, 0xbd, 0x19, 0x95, 0x95, 0x3e, 0x94, 0xe8, 0x3d, 0xbe,
  0x4a, 0xf3, 0x85, 0x3e, 0xd8, 0x65, 0x2e, 0xbd, 0x30, 0x06, 0x41, 0x3d,
  0xb2, 0x1a, 0x00, 0xbe, 0x2b, 0x8b, 0xea, 0x3e, 0xed, 0x04, 0x91, 0xbd,
  0xee, 0x80, 0x00, 0x3e, 0x7c, 0xf1, 0x44, 0x3d, 0xe1, 0x9e, 0x79, 0x3f,
  0xe2, 0xdd, 0x33, 0xbe, 0x00, 0xc2, 0x6d, 0x3e, 0x00, 0x9d, 0x23, 0xbe,
  0x80, 0x95, 0x2f, 0xbd, 0x0f, 0x67, 0x5c, 0x3e, 0x61, 0x82, 0x00, 0x3e,
  0x3d, 0x4a, 0x23, 0x3d, 0x6f, 0x1e, 0xf8, 0x3d, 0xe9, 0x30, 0xbf, 0xbd,
  0x2b, 0x2b, 0x80, 0x3c, 0x90, 0x51, 0x82, 0x3b, 0x80, 0x8d, 0x01, 0x3f,
  0xf6, 0xc0, 0x99, 0xbd, 0x2b, 0x64, 0x70, 0x3d, 0x5e, 0xaa, 0xa0, 0x3e,
  0xef, 0x2e, 0x6e, 0x3f, 0x4e, 0x78, 0xeb, 0xbc, 0x9a, 0x10, 0x15, 0xbe,
  0x21, 0xba, 0x97, 0x3d, 0x05, 0x4f, 0xf1, 0x3e, 0x6a, 0xed, 0x15, 0xbe,
  0xe6, 0xa7, 0x1f, 0x3e, 0x33, 0x79, 0x13, 0x3c, 0xd6, 0xbc, 0x94, 0x3e,
  0x19, 0xa2, 0xd1, 0xbd, 0x51, 0x60, 0xbe, 0x3d, 0x0b, 0x5b, 0x40, 0x3e,
  0x00, 0xc5, 0x3e, 0x3d, 0x57, 0x38, 0x1a, 0x3d, 0xbe, 0xb4, 0xa8, 0x3d,
  0x02, 0x5a, 0x0e, 0x3e, 0x16, 0x15, 0xb1, 0x3e, 0x53, 0xe0, 0x02, 0x3c,
  0xce, 0x74, 0xb3, 0xbd, 0x14, 0xea, 0x10, 0x3c, 0x88, 0x12, 0x1d, 0x3e,
  0x79, 0x6c, 0x3d, 0x3d, 0xfa, 0x5d, 0x9f, 0x3e, 0xcf, 0x81, 0x5e, 0xbd,
  0xbc, 0xd9, 0x02, 0x3e, 0x5d, 0x93, 0xce, 0x3d, 0x48, 0x54, 0x9b, 0x3e,
  0xa1, 0xe1, 0xd5, 0xbd, 0xa0, 0x7e, 0xea, 0x3d, 0x58, 0x7b, 0xcb, 0x3d,
  0x96, 0x56, 0x85, 0x3e, 0x1a, 0xa6, 0xe2, 0x3d, 0x78, 0x02, 0x5c, 0xbe,
  0x6d, 0xc5, 0xe6, 0x3d, 0x82, 0x50, 0xc4, 0xbd, 0xfe, 0x1e, 0x58, 0x3d,
  0xb4, 0x60, 0x8e, 0x3e, 0xd6, 0x32, 0xf8, 0x3c, 0xc2, 0x12, 0x65, 0x3e,
  0x69, 0xcc, 0xc1, 0xbc, 0x81, 0x86, 0x8f, 0xbd, 0x7d, 0x98, 0x72, 0xbd,
  0x34, 0xb6, 0x1e, 0x3e, 0x01, 0x1b, 0x29, 0xbe, 0x1d, 0x93, 0x5f, 0xbe,
  0xb0, 0x47, 0x82, 0x3e, 0xe0, 0x3a, 0xd6, 0x3d, 0xbb, 0x80, 0xbc, 0xbb,
  0xd6, 0x79, 0xea, 0xbc, 0xe1, 0x91, 0xbe, 0x3d, 0x81, 0xd9, 0xbb, 0xbd,
  0xe7, 0x68, 0x1a, 0x3e, 0x82, 0x2f, 0x1a, 0x3e, 0xe1, 0x67, 0x82, 0xbb,
  0xf1, 0x55, 0x13, 0x3b, 0x1c, 0xad, 0x0e, 0xbd, 0x39, 0x26, 0x16, 0xbe,
  0xc4, 0x9b, 0xe4, 0xbd, 0x69, 0x96, 0xaa, 0xb9, 0xc5, 0x6d, 0x2a, 0xbe,
  0x5d, 0x03, 0xe9, 0xbc, 0x3b, 0x79, 0x1f, 0x3e, 0x77, 0x02, 0x42, 0x3d,
  0x61, 0xca, 0x81, 0x3d, 0x63, 0x9d, 0xfb, 0xbd, 0x2a, 0x0a, 0x1c, 0x3d,
  0x52, 0x57, 0xde, 0x3d, 0x2e, 0xe3, 0xf5, 0x3d, 0x60, 0x09, 0x48, 0x3e,
  0xd6, 0xca, 0xee, 0xbb, 0xa2, 0x3e, 0x1f, 0x3e, 0xa5, 0x50, 0x4e, 0x3d,
  0xb1, 0x4c, 0x8e, 0x3e, 0x0f, 0x8b, 0xf5, 0xbd, 0x7e, 0x00, 0x45, 0x3d,
  0x17, 0x77, 0x5d, 0x3e, 0x53, 0xe9, 0xe5, 0x3e, 0x49, 0x36, 0x78, 0xbe,
  0xbb, 0x97, 0x47, 0xbd, 0x07, 0x1e, 0xec, 0x3e, 0x32, 0xe5, 0xc4, 0x3e,
  0x48, 0x10, 0x37, 0xbe, 0x30, 0x47, 0x9b, 0x3e, 0x38, 0xd1, 0x8f, 0xbc,
  0x56, 0xc0, 0x48, 0x3e, 0xaf, 0x69, 0xc1, 0x3d, 0x12, 0xb0, 0x7a, 0x3e,
  0xfa, 0xbe, 0x5e, 0x3e, 0x3c, 0x6b, 0x38, 0x3d, 0xfe, 0x47, 0x1c, 0xbc,
  0x1e, 0x3a, 0x7c, 0x3e, 0x1f, 0x22, 0x9a, 0x3e, 0x2d, 0x37, 0xf2, 0x3e,
  0xca, 0x6c, 0x40, 0xbe, 0x60, 0x14, 0xef, 0x3c, 0xd5, 0x87, 0xbf, 0x3d,
  0x4f, 0xe9, 0xaa, 0x3e, 0x12, 0x19, 0x64, 0xbe, 0x91, 0x3b, 0x09, 0x3e,
  0x0c, 0x16, 0x4d, 0xbe, 0xce, 0x04, 0x7a, 0x3e, 0xd2, 0x26, 0x55, 0x3e,
  0x6e, 0xf2, 0x83, 0x3e, 0xe7, 0x13, 0xe0, 0xbd, 0x96, 0xab, 0x26, 0x3e,
  0x7b, 0x4a, 0x14, 0x3d, 0x85, 0xe7, 0xde, 0x3d, 0x8a, 0xc2, 0x3d, 0x3d,
  0xca, 0xb1, 0xae, 0x38, 0x4f, 0x6f, 0x73, 0xbc, 0x9b, 0xf1, 0x90, 0x3e,
  0x5c, 0x76, 0x3e, 0x3e, 0x90, 0x73, 0x99, 0x3e, 0x77, 0x0d, 0x5f, 0x3e,
  0x64, 0x80, 0x13, 0x3e, 0x4d, 0x7a, 0xed, 0xbd, 0x68, 0xae, 0x27, 0x3e,
  0x50, 0x8a, 0x1b, 0x3e, 0xea, 0x97, 0xa3, 0x3e, 0x3b, 0xbe, 0x39, 0xbe,
  0x9a, 0x41, 0xe8, 0x3c, 0xca, 0xbe, 0xa0, 0xbc, 0xe5, 0x74, 0x7a, 0x3e,
  0x2d, 0x69, 0xdc, 0xbd, 0x5c, 0x50, 0x10, 0x3e, 0xeb, 0x87, 0x8c, 0x3e,
  0x4e, 0x94, 0xf9, 0x3d, 0xc9, 0xd7, 0xcd, 0xbd, 0x3c, 0x4e, 0x1c, 0xbe,
  0x07, 0xb0, 0x8f, 0x3e, 0x99, 0x41, 0x2e, 0xbe, 0x15, 0x96, 0x02, 0x3f,
  0xc5, 0x3a, 0x0d, 0x3f, 0x65, 0x2b, 0x8d, 0xbe, 0x1c, 0x8f, 0x62, 0x3e,
  0x27, 0x92, 0xac, 0x3e, 0xcf, 0x81, 0xe6, 0x3e, 0x66, 0x92, 0x77, 0xbe,
  0x08, 0x61, 0xaf, 0x3d, 0xa0, 0x98, 0x86, 0xbd, 0xfa, 0xc8, 0x86, 0xbd,
  0x23, 0x70, 0x19, 0x3d, 0x52, 0xe6, 0x8d, 0xbd, 0x83, 0x4c, 0x06, 0xbe,
  0xd7, 0x5e, 0xd1, 0x3d, 0x78, 0x58, 0x78, 0x3d, 0xb8, 0x2e, 0xa7, 0xbd,
  0x31, 0xc3, 0x4d, 0x3e, 0xea, 0x3c, 0x07, 0x3f, 0xda, 0x56, 0x93, 0xbe,
  0x1f, 0x8a, 0x05, 0xbe, 0x6e, 0x79, 0x4e, 0x3d, 0xea, 0xb4, 0xa3, 0x3e,
  0xbb, 0x2e, 0x5f, 0xbe, 0x83, 0x9b, 0x0a, 0x3e, 0xed, 0xbe, 0xea, 0x3d,
  0xc8, 0xc4, 0x29, 0xbd, 0xa4, 0x42, 0xa1, 0x3d, 0x16, 0xb2, 0x4b, 0x3e,
  0x06, 0xdb, 0x40, 0x3d, 0x9c, 0xc9, 0x6a, 0x3e, 0xda, 0xb0, 0xf2, 0x3a,
  0xea, 0x7e, 0x72, 0x3d, 0xd6, 0x68, 0xed, 0x3d, 0x1c, 0x46, 0xd1, 0x3e,
  0x5b, 0xa7, 0x7d, 0xbe, 0xed, 0x27, 0x4d, 0xbd, 0xdf, 0x2d, 0x4f, 0x3d,
  0x5c, 0x54, 0x24, 0x3d, 0x56, 0x62, 0x2d, 0xbe, 0xf1, 0x2d, 0x5f, 0x3e,
  0x7d, 0xc0, 0xf0, 0x3b, 0x84, 0x6e, 0x7e, 0x3d, 0x4e, 0x62, 0x96, 0xbd,
  0x35, 0x42, 0x7f, 0x3e, 0x5d, 0x66, 0x92, 0x3d, 0xe9, 0x7d, 0x28, 0x3e,
  0xf7, 0x2a, 0x40, 0x3e, 0x43, 0xaf, 0x8c, 0x3e, 0xba, 0x96, 0x0c, 0x3e,
  0x57, 0xdc, 0x0d, 0xbc, 0xe5, 0x07, 0xa6, 0x3d, 0xd4, 0x8f, 0x6b, 0x3e,
  0xdb, 0xee, 0xb3, 0xbd, 0xe1, 0xc0, 0x03, 0xbe, 0x89, 0x8a, 0x80, 0x3e,
  0x4c, 0x50, 0x6d, 0x3e, 0xa1, 0x95, 0xa5, 0x3d, 0x41, 0x00, 0x22, 0xbe,
  0x73, 0xa3, 0xbe, 0x3c, 0x48, 0x02, 0x90, 0x3e, 0xeb, 0x9f, 0x6c, 0xbe,
  0xdf, 0xed, 0x6f, 0xbe, 0x0b, 0xe2, 0x9e, 0x3e, 0xb9, 0x62, 0x16, 0x3e,
  0x34, 0xff, 0x53, 0x3e, 0x28, 0xe9, 0x7a, 0x3d, 0x3b, 0x0f, 0x39, 0xbd,
  0x88, 0xea, 0xd4, 0x3d, 0xb0, 0x34, 0x51, 0x3e, 0x3b, 0x99, 0x71, 0x3e,
  0xca, 0xd5, 0x12, 0xbe, 0x2d, 0x32, 0x6d, 0x3e, 0x58, 0xc1, 0x82, 0x3e,
  0x26, 0x64, 0xa8, 0x3e, 0x33, 0x76, 0x17, 0xbe, 0x38, 0x00, 0xc7, 0x3c,
  0xd4, 0xd4, 0x41, 0x3e, 0xd5, 0x45, 0xaa, 0x3e, 0xa3, 0xc2, 0x6c, 0x3e,
  0x4a, 0x63, 0x4a, 0x3e, 0xd8, 0xad, 0x6d, 0x3d, 0xbb, 0x1a, 0x97, 0x3e,
  0xc5, 0x1d, 0x7b, 0xbe, 0x8a, 0xf4, 0xc7, 0x3c, 0x16, 0x4c, 0x2a, 0x3e,
  0x10, 0xb7, 0xae, 0x3e, 0x7d, 0x94, 0x56, 0xbe, 0xd7, 0x28, 0x80, 0x3d,
  0xea, 0x7e, 0xc4, 0x3d, 0x79, 0x91, 0x46, 0x3e, 0x0a, 0x1c, 0x40, 0xbb,
  0x47, 0xdf, 0x3a, 0x3d, 0xe9, 0xe2, 0xa8, 0x3e, 0x0a, 0xdc, 0x14, 0x3e,
  0x4d, 0xbe, 0x5c, 0x3d, 0x01, 0xfd, 0x39, 0xbd, 0x2f, 0x07, 0x3c, 0x3e,
  0x5b, 0xa3, 0x27, 0x3e, 0xb1, 0x3b, 0x0d, 0xbe, 0x15, 0x6d, 0x0d, 0x3e,
  0xa2, 0xbf, 0xa1, 0x3e, 0x42, 0x79, 0xae, 0x3e, 0x74, 0xcc, 0xed, 0xbd,
  0xdb, 0x33, 0x25, 0x3e, 0xec, 0x58, 0xdd, 0x3c, 0xe1, 0xf5, 0x98, 0x3e,
  0xfe, 0x97, 0x3d, 0xbe, 0x95, 0x9e, 0xa1, 0x3d, 0xa0, 0xa3, 0x8d, 0x3e,
  0xc6, 0x8a, 0x04, 0x3e, 0xac, 0xdb, 0xd6, 0xbd, 0xf7, 0x4c, 0xa3, 0xbd,
  0x75, 0xaf, 0xa5, 0x3e, 0x3f, 0x9b, 0x82, 0x3e, 0x92, 0xd0, 0xf5, 0xbd,
  0x6a, 0x54, 0x40, 0xbd, 0x3a, 0x5b, 0xc7, 0x3d, 0xbd, 0x86, 0x7f, 0x3e,
  0x0c, 0xe0, 0xf1, 0xbd, 0x82, 0x75, 0xdd, 0x3d, 0xf3, 0x8d, 0x58, 0xbd,
  0xbb, 0xb6, 0xa2, 0x3e, 0x60, 0x8e, 0xbd, 0xbc, 0x79, 0x9b, 0x66, 0x3e,
  0x92, 0x68, 0x40, 0xbd, 0xa8, 0x43, 0xa4, 0xbd, 0xce, 0x28, 0x6a, 0x3e,
  0x12, 0xfa, 0xff, 0xff, 0x10, 0x00, 0x00, 0x00, 0x08, 0x00, 0x00, 0x00,
  0x1c, 0x00, 0x00, 0x00, 0x3c, 0x00, 0x00, 0x00, 0x04, 0x00, 0x00, 0x00,
  0x08, 0x00, 0x00, 0x00, 0x04, 0x00, 0x00, 0x00, 0x04, 0x00, 0x00, 0x00,
  0x04, 0x00, 0x00, 0x00, 0x1e, 0x00, 0x00, 0x00, 0x73, 0x65, 0x71, 0x75,
  0x65, 0x6e, 0x74, 0x69, 0x61, 0x6c, 0x5f, 0x32, 0x33, 0x2f, 0x63, 0x6f,
  0x6e, 0x76, 0x32, 0x64, 0x5f, 0x37, 0x30, 0x2f, 0x43, 0x6f, 0x6e, 0x76,
  0x32, 0x44, 0x00, 0x00, 0x9c, 0xf9, 0xff, 0xff, 0x7a, 0xfa, 0xff, 0xff,
  0x04, 0x00, 0x00, 0x00, 0x90, 0x01, 0x00, 0x00, 0x29, 0xe6, 0x3a, 0xbe,
  0x79, 0xee, 0x10, 0x3e, 0xcd, 0x0d, 0x26, 0xbe, 0x25, 0x62, 0x17, 0xbe,
  0x01, 0x8f, 0x3f, 0x3e, 0x7a, 0x96, 0xce, 0xbd, 0x11, 0x85, 0x2b, 0xbe,
  0xe8, 0xbb, 0xab, 0xbd, 0x50, 0x64, 0x59, 0xbd, 0x21, 0xb4, 0x16, 0xbd,
  0xea, 0x9b, 0x9e, 0xbd, 0x6b, 0x4d, 0x34, 0x3e, 0xa7, 0xca, 0xb3, 0x3d,
  0x44, 0xcd, 0x0d, 0xbe, 0x9b, 0x7c, 0xcd, 0x3d, 0x46, 0x8e, 0x47, 0xbe,
  0xe6, 0x65, 0x13, 0xbd, 0x68, 0x7a, 0x5b, 0x3e, 0xa5, 0xc6, 0x69, 0x3e,
  0xa3, 0x46, 0x0f, 0x3e, 0x18, 0xd8, 0xe7, 0x3d, 0x9a, 0x95, 0x09, 0xbe,
  0x23, 0xfe, 0xbb, 0xbd, 0x8b, 0x83, 0x8a, 0x3e, 0xa8, 0x9c, 0x7a, 0x3d,
  0x0c, 0x81, 0xda, 0xbe, 0x7d, 0xfc, 0x97, 0xbe, 0x93, 0x6f, 0x81, 0xbe,
  0x8e, 0x9c, 0xb5, 0xbe, 0x9e, 0xce, 0xc9, 0xbe, 0x2d, 0x49, 0x95, 0xbe,
  0xb6, 0x3c, 0x44, 0xbe, 0xc4, 0x40, 0x73, 0xbe, 0xc0, 0x29, 0xed, 0xbd,
  0xdb, 0x8a, 0xb5, 0xbe, 0xc2, 0x60, 0xa4, 0x3c, 0xc7, 0x1b, 0xcc, 0xbe,
  0x92, 0x83, 0xcc, 0xbe, 0x42, 0x28, 0xad, 0xbe, 0x27, 0xea, 0xa2, 0xbe,
  0x37, 0xba, 0x15, 0xbe, 0x73, 0x66, 0xcb, 0xbe, 0x74, 0x45, 0xbf, 0xbe,
  0xf8, 0x10, 0xda, 0xbe, 0xd8, 0x61, 0xc2, 0xbe, 0xcb, 0x0d, 0x90, 0x3d,
  0xa2, 0xcc, 0x94, 0xbd, 0xf1, 0x43, 0xa2, 0xbe, 0x6b, 0xc0, 0x60, 0xbe,
  0x6c, 0xc0, 0xae, 0xbe, 0xdb, 0x5c, 0xdb, 0x3d, 0x1a, 0x1a, 0x89, 0x3d,
  0x59, 0x7b, 0x53, 0xbe, 0x25, 0xd1, 0x8b, 0xbb, 0x42, 0x1d, 0x1f, 0xbd,
  0x5d, 0x0b, 0x47, 0xbe, 0x85, 0x0c, 0x3d, 0x3b, 0xd0, 0x27, 0xc8, 0x3c,
  0x83, 0x45, 0x47, 0xbe, 0x1a, 0x70, 0x82, 0xbe, 0xda, 0x5f, 0xd0, 0xba,
  0xf5, 0x43, 0x11, 0x3e, 0x9a, 0xf4, 0xff, 0xbc, 0xea, 0x31, 0x80, 0xbe,
  0xb0, 0xf0, 0xc4, 0x3d, 0x99, 0x02, 0xd9, 0x3d, 0xd0, 0xa6, 0x55, 0xbe,
  0xa5, 0xc4, 0xbf, 0x3d, 0x04, 0x9d, 0x9f, 0xbe, 0xe4, 0x50, 0x23, 0xbe,
  0x59, 0x03, 0x7c, 0xbe, 0x25, 0xf2, 0xa2, 0xbd, 0x2e, 0x12, 0x9e, 0x3d,
  0xaf, 0x25, 0x9f, 0xbd, 0xb6, 0x38, 0xa0, 0xbe, 0xd9, 0x8b, 0x31, 0x3e,
  0xab, 0xc2, 0x91, 0x3e, 0xc2, 0x92, 0xcc, 0x3d, 0x90, 0x0f, 0x1b, 0x3e,
  0x44, 0x33, 0xd4, 0x3d, 0x6c, 0x10, 0x87, 0x3e, 0x5a, 0x9a, 0xaf, 0x3d,
  0xc8, 0x6a, 0xba, 0x3e, 0x35, 0xab, 0x07, 0x3e, 0xe3, 0xfe, 0x87, 0x3e,
  0x04, 0x2f, 0x80, 0x3b, 0x70, 0xf1, 0xa5, 0x3e, 0xb7, 0x6d, 0x2a, 0x3e,
  0x28, 0xbe, 0x88, 0x3e, 0x9f, 0x5a, 0x3e, 0x3e, 0xbe, 0x27, 0xe8, 0x3d,
  0xba, 0xf2, 0xde, 0x3d, 0x41, 0x6a, 0x2b, 0x3e, 0x3e, 0xb4, 0x04, 0x3e,
  0x84, 0x1c, 0xa8, 0x3c, 0x60, 0x85, 0xd8, 0xbd, 0x01, 0x78, 0xa2, 0x3e,
  0xcb, 0x72, 0x55, 0xbd, 0x96, 0x22, 0xd5, 0x3e, 0x3c, 0x8f, 0x76, 0x3e,
  0xfe, 0xfb, 0xff, 0xff, 0x10, 0x00, 0x00, 0x00, 0x07, 0x00, 0x00, 0x00,
  0x1c, 0x00, 0x00, 0x00, 0x3c, 0x00, 0x00, 0x00, 0x04, 0x00, 0x00, 0x00,
  0x04, 0x00, 0x00, 0x00, 0x05, 0x00, 0x00, 0x00, 0x05, 0x00, 0x00, 0x00,
  0x01, 0x00, 0x00, 0x00, 0x1e, 0x00, 0x00, 0x00, 0x73, 0x65, 0x71, 0x75,
  0x65, 0x6e, 0x74, 0x69, 0x61, 0x6c, 0x5f, 0x32, 0x33, 0x2f, 0x63, 0x6f,
  0x6e, 0x76, 0x32, 0x64, 0x5f, 0x36, 0x39, 0x2f, 0x43, 0x6f, 0x6e, 0x76,
  0x32, 0x44, 0x00, 0x00, 0x88, 0xfb, 0xff, 0xff, 0x66, 0xfc, 0xff, 0xff,
  0x04, 0x00, 0x00, 0x00, 0x20, 0x00, 0x00, 0x00, 0x1b, 0x61, 0x0a, 0x3f,
  0xb3, 0xad, 0x29, 0x3f, 0x4d, 0xce, 0x9e, 0x3f, 0xe7, 0x8f, 0x90, 0x3f,
  0xe7, 0xc3, 0x8f, 0xbf, 0x0c, 0xf0, 0xae, 0xbf, 0x84, 0xaf, 0xfe, 0x3e,
  0xfc, 0xf0, 0xbc, 0xbf, 0x7a, 0xfc, 0xff, 0xff, 0x10, 0x00, 0x00, 0x00,
  0x06, 0x00, 0x00, 0x00, 0x14, 0x00, 0x00, 0x00, 0x34, 0x00, 0x00, 0x00,
  0x02, 0x00, 0x00, 0x00, 0x01, 0x00, 0x00, 0x00, 0x08, 0x00, 0x00, 0x00,
  0x1d, 0x00, 0x00, 0x00, 0x73, 0x65, 0x71, 0x75, 0x65, 0x6e, 0x74, 0x69,
  0x61, 0x6c, 0x5f, 0x32, 0x33, 0x2f, 0x64, 0x65, 0x6e, 0x73, 0x65, 0x5f,
  0x35, 0x38, 0x2f, 0x4d, 0x61, 0x74, 0x4d, 0x75, 0x6c, 0x00, 0x00, 0x00,
  0xfc, 0xfb, 0xff, 0xff, 0xda, 0xfc, 0xff, 0xff, 0x04, 0x00, 0x00, 0x00,
  0x00, 0x02, 0x00, 0x00, 0x4a, 0x33, 0x2d, 0xbf, 0xc4, 0xbc, 0x1f, 0xbf,
  0x59, 0xe1, 0x41, 0x3e, 0x95, 0xbd, 0xb7, 0xbe, 0xe1, 0xd5, 0x59, 0xbe,
  0x83, 0xea, 0x98, 0xbe, 0xfe, 0x22, 0xc2, 0xbe, 0x78, 0x5a, 0xfb, 0xbe,
  0xa5, 0x11, 0xd5, 0xbc, 0xd4, 0x18, 0x2d, 0x3f, 0xb7, 0x0e, 0x46, 0x3f,
  0xde, 0x3a, 0xfe, 0x3e, 0xad, 0x77, 0x35, 0xbd, 0x4c, 0xb6, 0xc0, 0x3e,
  0x16, 0xbe, 0x89, 0x3c, 0xe4, 0xf6, 0x28, 0xbf, 0x7d, 0xde, 0x39, 0xbe,
  0x4f, 0x38, 0x21, 0xbe, 0xc2, 0x54, 0xe8, 0xbe, 0xe5, 0x54, 0x15, 0xbe,
  0x48, 0x11, 0x4d, 0xbd, 0x86, 0xaa, 0x49, 0xbf, 0x1c, 0x47, 0x0f, 0xbd,
  0xb3, 0xb0, 0x42, 0xbe, 0xcf, 0xf5, 0xfc, 0xbe, 0x6c, 0x28, 0xf2, 0x3e,
  0xeb, 0xf9, 0xd9, 0x3e, 0xcc, 0x6f, 0x4c, 0x3e, 0x9a, 0x99, 0x2f, 0x3d,
  0x0f, 0xc4, 0xaa, 0x3e, 0x1b, 0xd4, 0x2a, 0xbf, 0x85, 0x1e, 0x9c, 0x3d,
  0xf4, 0x99, 0x23, 0x3d, 0xbb, 0x1b, 0x4c, 0x3e, 0xa6, 0xf9, 0xe8, 0xbe,
  0x08, 0x6f, 0xab, 0x3c, 0xbe, 0x0c, 0x00, 0xbf, 0x48, 0xb0, 0x26, 0xbf,
  0xf0, 0x91, 0x12, 0xbf, 0x76, 0x2e, 0x0b, 0xbf, 0xd1, 0x63, 0x2e, 0xbf,
  0x29, 0xc4, 0xdc, 0x3e, 0x66, 0x2a, 0x02, 0x3f, 0x35, 0xd6, 0x8a, 0x3e,
  0x76, 0x73, 0x29, 0xbf, 0x0b, 0x27, 0x49, 0x3f, 0xa2, 0x6d, 0x34, 0xbe,
  0x2c, 0x73, 0x7d, 0xbe, 0xfc, 0xc4, 0x37, 0xbe, 0xfb, 0xa4, 0xd3, 0xbe,
  0x7b, 0x32, 0x27, 0xbd, 0x81, 0x1d, 0x3d, 0xbe, 0x9b, 0xe0, 0x83, 0xbe,
  0xbf, 0x78, 0x03, 0xbf, 0xb7, 0x81, 0xf6, 0xbe, 0x3a, 0x4a, 0x87, 0xbe,
  0x9d, 0x00, 0x8a, 0xbe, 0x8e, 0x2e, 0xf9, 0x3e, 0x42, 0x61, 0xb4, 0x3b,
  0x28, 0x21, 0x23, 0x3f, 0x25, 0x85, 0xd1, 0xbe, 0xab, 0x81, 0xd6, 0x3e,
  0x27, 0xef, 0x05, 0xbf, 0x5b, 0x87, 0xa5, 0xbe, 0xde, 0x61, 0x32, 0x3f,
  0xdd, 0x66, 0x2c, 0x3f, 0x8f, 0x36, 0x2c, 0xba, 0xbd, 0x79, 0x11, 0xbe,
  0x68, 0xa5, 0x01, 0x3f, 0x32, 0xa6, 0x8f, 0x3e, 0x44, 0xcf, 0x12, 0x3e,
  0x05, 0xba, 0x19, 0xbe, 0xdd, 0xa3, 0x24, 0x3f, 0xa4, 0xa6, 0x81, 0xbe,
  0x69, 0xba, 0x2e, 0xbf, 0x1c, 0xd0, 0x38, 0xbf, 0xa7, 0x65, 0x25, 0xbe,
  0xef, 0x9f, 0x52, 0xbe, 0x0a, 0xb3, 0x66, 0x3e, 0x49, 0xc5, 0x08, 0x3d,
  0xeb, 0x50, 0x1d, 0x3f, 0x31, 0xe0, 0x0e, 0xbe, 0xed, 0x06, 0xf2, 0x3e,
  0xbd, 0x3c, 0x1b, 0x3f, 0x9d, 0x34, 0x11, 0x3f, 0xff, 0xe6, 0x8c, 0x3d,
  0xbb, 0xdf, 0x29, 0x3f, 0xc1, 0x70, 0xba, 0x3d, 0x69, 0x22, 0x0e, 0xbe,
  0x0d, 0x2e, 0xd8, 0xbd, 0xde, 0xa6, 0xaa, 0xbc, 0x4e, 0xac, 0x78, 0xbe,
  0x29, 0xcf, 0xb1, 0x3e, 0xda, 0x3a, 0x3d, 0xbf, 0x28, 0xe2, 0xc5, 0x3e,
  0x74, 0xac, 0x9b, 0xbd, 0x74, 0x35, 0xa5, 0xbe, 0x87, 0xcb, 0x33, 0x3e,
  0x68, 0x75, 0xef, 0xbe, 0xa0, 0x71, 0x1d, 0xbf, 0x70, 0xcf, 0x92, 0xbd,
  0x76, 0x44, 0x18, 0xbf, 0x18, 0x1b, 0x5b, 0xbe, 0x30, 0x1f, 0xac, 0xbd,
  0x25, 0xbf, 0x38, 0xbf, 0x12, 0x42, 0x15, 0x3f, 0xa7, 0x1e, 0xa8, 0x3e,
  0xda, 0x34, 0xde, 0x3d, 0x85, 0xbf, 0xa7, 0xbd, 0xd1, 0x4b, 0xa0, 0x3e,
  0x54, 0x39, 0xae, 0x3d, 0xb9, 0x71, 0x53, 0xbe, 0xe0, 0x3b, 0x70, 0x3e,
  0x26, 0xa5, 0x31, 0x3f, 0xf6, 0x2c, 0xd9, 0x3e, 0x50, 0xe5, 0xcd, 0x3e,
  0x6c, 0x95, 0x17, 0x3e, 0xd4, 0x67, 0xfd, 0x3d, 0x61, 0xaa, 0xaa, 0x3e,
  0x05, 0x5b, 0x8b, 0x3b, 0xd3, 0xcc, 0x65, 0xbd, 0x65, 0xf6, 0x3b, 0xbf,
  0x38, 0xb5, 0x6d, 0xbf, 0x81, 0x96, 0x51, 0xbf, 0x39, 0x99, 0x2d, 0x3e,
  0x84, 0x20, 0x8d, 0x3d, 0x2e, 0x7f, 0x0b, 0x3e, 0xde, 0xea, 0x17, 0x3f,
  0xce, 0xfe, 0xff, 0xff, 0x10, 0x00, 0x00, 0x00, 0x05, 0x00, 0x00, 0x00,
  0x14, 0x00, 0x00, 0x00, 0x34, 0x00, 0x00, 0x00, 0x02, 0x00, 0x00, 0x00,
  0x08, 0x00, 0x00, 0x00, 0x10, 0x00, 0x00, 0x00, 0x1d, 0x00, 0x00, 0x00,
  0x73, 0x65, 0x71, 0x75, 0x65, 0x6e, 0x74, 0x69, 0x61, 0x6c, 0x5f, 0x32,
  0x33, 0x2f, 0x64, 0x65, 0x6e, 0x73, 0x65, 0x5f, 0x35, 0x37, 0x2f, 0x4d,
  0x61, 0x74, 0x4d, 0x75, 0x6c, 0x00, 0x00, 0x00, 0x50, 0xfe, 0xff, 0xff,
  0x2e, 0xff, 0xff, 0xff, 0x04, 0x00, 0x00, 0x00, 0x08, 0x00, 0x00, 0x00,
  0xff, 0xff, 0xff, 0xff, 0x10, 0x00, 0x00, 0x00, 0x00, 0x00, 0x0e, 0x00,
  0x18, 0x00, 0x08, 0x00, 0x07, 0x00, 0x0c, 0x00, 0x10, 0x00, 0x14, 0x00,
  0x0e, 0x00, 0x00, 0x00, 0x00, 0x00, 0x00, 0x02, 0x10, 0x00, 0x00, 0x00,
  0x04, 0x00, 0x00, 0x00, 0x10, 0x00, 0x00, 0x00, 0x30, 0x00, 0x00, 0x00,
  0x01, 0x00, 0x00, 0x00, 0x02, 0x00, 0x00, 0x00, 0x1e, 0x00, 0x00, 0x00,
  0x73, 0x65, 0x71, 0x75, 0x65, 0x6e, 0x74, 0x69, 0x61, 0x6c, 0x5f, 0x32,
  0x33, 0x2f, 0x66, 0x6c, 0x61, 0x74, 0x74, 0x65, 0x6e, 0x5f, 0x32, 0x31,
  0x2f, 0x43, 0x6f, 0x6e, 0x73, 0x74, 0x00, 0x00, 0xbc, 0xfe, 0xff, 0xff,
  0x9a, 0xff, 0xff, 0xff, 0x04, 0x00, 0x00, 0x00, 0x20, 0x00, 0x00, 0x00,
  0x3f, 0xb1, 0x25, 0xbd, 0xfc, 0x3d, 0x1c, 0x3d, 0xfa, 0x8b, 0x0a, 0xbd,
  0x86, 0xad, 0x10, 0x3c, 0x81, 0x34, 0xdb, 0x3c, 0x98, 0xc0, 0x04, 0x3d,
  0xc7, 0x83, 0x17, 0x3d, 0xea, 0x93, 0xa8, 0x3d, 0xae, 0xff, 0xff, 0xff,
  0x10, 0x00, 0x00, 0x00, 0x03, 0x00, 0x00, 0x00, 0x10, 0x00, 0x00, 0x00,
  0x24, 0x00, 0x00, 0x00, 0x01, 0x00, 0x00, 0x00, 0x08, 0x00, 0x00, 0x00,
  0x0d, 0x00, 0x00, 0x00, 0x64, 0x65, 0x6e, 0x73, 0x65, 0x5f, 0x35, 0x37,
  0x2f, 0x62, 0x69, 0x61, 0x73, 0x00, 0x00, 0x00, 0x04, 0x00, 0x06, 0x00,
  0x04, 0x00, 0x00, 0x00, 0x00, 0x00, 0x06, 0x00, 0x08, 0x00, 0x04, 0x00,
  0x06, 0x00, 0x00, 0x00, 0x04, 0x00, 0x00, 0x00, 0x04, 0x00, 0x00, 0x00,
  0x8a, 0x58, 0x07, 0xbf, 0x00, 0x00, 0x0e, 0x00, 0x14, 0x00, 0x04, 0x00,
  0x00, 0x00, 0x08, 0x00, 0x0c, 0x00, 0x10, 0x00, 0x0e, 0x00, 0x00, 0x00,
  0x10, 0x00, 0x00, 0x00, 0x02, 0x00, 0x00, 0x00, 0x10, 0x00, 0x00, 0x00,
  0x20, 0x00, 0x00, 0x00, 0x01, 0x00, 0x00, 0x00, 0x01, 0x00, 0x00, 0x00,
  0x0d, 0x00, 0x00, 0x00, 0x64, 0x65, 0x6e, 0x73, 0x65, 0x5f, 0x35, 0x38,
  0x2f, 0x62, 0x69, 0x61, 0x73, 0x00, 0x00, 0x00, 0x7c, 0xff, 0xff, 0xff,
  0x14, 0x00, 0x18, 0x00, 0x04, 0x00, 0x00, 0x00, 0x08, 0x00, 0x0c, 0x00,
  0x10, 0x00, 0x00, 0x00, 0x00, 0x00, 0x14, 0x00, 0x14, 0x00, 0x00, 0x00,
  0x14, 0x00, 0x00, 0x00, 0x01, 0x00, 0x00, 0x00, 0x20, 0x00, 0x00, 0x00,
  0x58, 0x00, 0x00, 0x00, 0x40, 0x00, 0x00, 0x00, 0x04, 0x00, 0x00, 0x00,
  0x01, 0x00, 0x00, 0x00, 0x60, 0x00, 0x00, 0x00, 0x60, 0x00, 0x00, 0x00,
  0x01, 0x00, 0x00, 0x00, 0x21, 0x00, 0x00, 0x00, 0x73, 0x65, 0x72, 0x76,
  0x69, 0x6e, 0x67, 0x5f, 0x64, 0x65, 0x66, 0x61, 0x75, 0x6c, 0x74, 0x5f,
  0x63, 0x6f, 0x6e, 0x76, 0x32, 0x64, 0x5f, 0x36, 0x39, 0x5f, 0x69, 0x6e,
  0x70, 0x75, 0x74, 0x3a, 0x30, 0x00, 0x00, 0x00, 0x04, 0x00, 0x00, 0x00,
  0xff, 0xff, 0xff, 0xff, 0x60, 0x00, 0x00, 0x00, 0x60, 0x00, 0x00, 0x00,
  0x01, 0x00, 0x00, 0x00, 0xfc, 0xff, 0xff, 0xff, 0x04, 0x00, 0x04, 0x00,
  0x04, 0x00, 0x00, 0x00
};
unsigned int cao_tflite_len = 11776;
