#include "model.h"
unsigned char cao_tflite[] = {
  0x1c, 0x00, 0x00, 0x00, 0x54, 0x46, 0x4c, 0x33, 0x14, 0x00, 0x20, 0x00,
  0x04, 0x00, 0x08, 0x00, 0x0c, 0x00, 0x10, 0x00, 0x14, 0x00, 0x00, 0x00,
  0x18, 0x00, 0x1c, 0x00, 0x14, 0x00, 0x00, 0x00, 0x03, 0x00, 0x00, 0x00,
  0x18, 0x00, 0x00, 0x00, 0x2c, 0x00, 0x00, 0x00, 0x74, 0x01, 0x00, 0x00,
  0x2c, 0x00, 0x00, 0x00, 0x1c, 0x01, 0x00, 0x00, 0x8c, 0x00, 0x00, 0x00,
  0x05, 0x00, 0x00, 0x00, 0x24, 0x0a, 0x00, 0x00, 0x18, 0x09, 0x00, 0x00,
  0xd4, 0x04, 0x00, 0x00, 0x18, 0x04, 0x00, 0x00, 0x78, 0x03, 0x00, 0x00,
  0x01, 0x00, 0x00, 0x00, 0x6c, 0x01, 0x00, 0x00, 0x19, 0x00, 0x00, 0x00,
  0x68, 0x45, 0x00, 0x00, 0x64, 0x45, 0x00, 0x00, 0x88, 0x44, 0x00, 0x00,
  0xf8, 0x43, 0x00, 0x00, 0x88, 0x43, 0x00, 0x00, 0x30, 0x23, 0x00, 0x00,
  0x98, 0x22, 0x00, 0x00, 0xb0, 0x1f, 0x00, 0x00, 0x30, 0x19, 0x00, 0x00,
  0x50, 0x0c, 0x00, 0x00, 0xc0, 0x0b, 0x00, 0x00, 0x28, 0x0b, 0x00, 0x00,
  0x80, 0x0a, 0x00, 0x00, 0x34, 0x45, 0x00, 0x00, 0x30, 0x45, 0x00, 0x00,
  0x2c, 0x45, 0x00, 0x00, 0x28, 0x45, 0x00, 0x00, 0x24, 0x45, 0x00, 0x00,
  0x20, 0x45, 0x00, 0x00, 0x1c, 0x45, 0x00, 0x00, 0x18, 0x45, 0x00, 0x00,
  0x14, 0x45, 0x00, 0x00, 0x10, 0x45, 0x00, 0x00, 0x0c, 0x45, 0x00, 0x00,
  0xc4, 0x00, 0x00, 0x00, 0x01, 0x00, 0x00, 0x00, 0x10, 0x00, 0x00, 0x00,
  0x00, 0x00, 0x0a, 0x00, 0x10, 0x00, 0x0c, 0x00, 0x08, 0x00, 0x04, 0x00,
  0x0a, 0x00, 0x00, 0x00, 0x0c, 0x00, 0x00, 0x00, 0x1c, 0x00, 0x00, 0x00,
  0x20, 0x00, 0x00, 0x00, 0x0f, 0x00, 0x00, 0x00, 0x73, 0x65, 0x72, 0x76,
  0x69, 0x6e, 0x67, 0x5f, 0x64, 0x65, 0x66, 0x61, 0x75, 0x6c, 0x74, 0x00,
  0x01, 0x00, 0x00, 0x00, 0x14, 0x00, 0x00, 0x00, 0x01, 0x00, 0x00, 0x00,
  0x28, 0x00, 0x00, 0x00, 0x08, 0x00, 0x0c, 0x00, 0x08, 0x00, 0x04, 0x00,
  0x08, 0x00, 0x00, 0x00, 0x16, 0x00, 0x00, 0x00, 0x04, 0x00, 0x00, 0x00,
  0x09, 0x00, 0x00, 0x00, 0x64, 0x65, 0x6e, 0x73, 0x65, 0x5f, 0x31, 0x32,
  0x31, 0x00, 0x00, 0x00, 0x46, 0xbc, 0xff, 0xff, 0x04, 0x00, 0x00, 0x00,
  0x10, 0x00, 0x00, 0x00, 0x63, 0x6f, 0x6e, 0x76, 0x32, 0x64, 0x5f, 0x32,
  0x31, 0x36, 0x5f, 0x69, 0x6e, 0x70, 0x75, 0x74, 0x00, 0x00, 0x00, 0x00,
  0x01, 0x00, 0x00, 0x00, 0x0c, 0x00, 0x00, 0x00, 0x08, 0x00, 0x0c, 0x00,
  0x04, 0x00, 0x08, 0x00, 0x08, 0x00, 0x00, 0x00, 0x08, 0x00, 0x00, 0x00,
  0x18, 0x00, 0x00, 0x00, 0x13, 0x00, 0x00, 0x00, 0x6d, 0x69, 0x6e, 0x5f,
  0x72, 0x75, 0x6e, 0x74, 0x69, 0x6d, 0x65, 0x5f, 0x76, 0x65, 0x72, 0x73,
  0x69, 0x6f, 0x6e, 0x00, 0x9a, 0xbc, 0xff, 0xff, 0x04, 0x00, 0x00, 0x00,
  0x10, 0x00, 0x00, 0x00, 0x31, 0x2e, 0x31, 0x34, 0x2e, 0x30, 0x00, 0x00,
  0x00, 0x00, 0x00, 0x00, 0x00, 0x00, 0x00, 0x00, 0x0f, 0x00, 0x00, 0x00,
  0x4d, 0x4c, 0x49, 0x52, 0x20, 0x43, 0x6f, 0x6e, 0x76, 0x65, 0x72, 0x74,
  0x65, 0x64, 0x2e, 0x00, 0x00, 0x00, 0x0e, 0x00, 0x18, 0x00, 0x04, 0x00,
  0x08, 0x00, 0x0c, 0x00, 0x10, 0x00, 0x14, 0x00, 0x0e, 0x00, 0x00, 0x00,
  0x14, 0x00, 0x00, 0x00, 0x70, 0x00, 0x00, 0x00, 0x74, 0x00, 0x00, 0x00,
  0x78, 0x00, 0x00, 0x00, 0xa4, 0x00, 0x00, 0x00, 0x17, 0x00, 0x00, 0x00,
  0x78, 0x43, 0x00, 0x00, 0x2c, 0x43, 0x00, 0x00, 0xc8, 0x42, 0x00, 0x00,
  0x30, 0x42, 0x00, 0x00, 0xc0, 0x41, 0x00, 0x00, 0x68, 0x21, 0x00, 0x00,
  0xc8, 0x20, 0x00, 0x00, 0xe0, 0x1d, 0x00, 0x00, 0x60, 0x17, 0x00, 0x00,
  0x58, 0x0a, 0x00, 0x00, 0xc8, 0x09, 0x00, 0x00, 0x30, 0x09, 0x00, 0x00,
  0x64, 0x08, 0x00, 0x00, 0x58, 0x07, 0x00, 0x00, 0x44, 0x06, 0x00, 0x00,
  0x60, 0x05, 0x00, 0x00, 0x7c, 0x04, 0x00, 0x00, 0xa8, 0x03, 0x00, 0x00,
  0x04, 0x03, 0x00, 0x00, 0x48, 0x02, 0x00, 0x00, 0xa8, 0x01, 0x00, 0x00,
  0xfc, 0x00, 0x00, 0x00, 0x70, 0x00, 0x00, 0x00, 0x01, 0x00, 0x00, 0x00,
  0x00, 0x00, 0x00, 0x00, 0x01, 0x00, 0x00, 0x00, 0x16, 0x00, 0x00, 0x00,
  0x0b, 0x00, 0x00, 0x00, 0xc0, 0x07, 0x00, 0x00, 0xb4, 0x06, 0x00, 0x00,
  0xc8, 0x05, 0x00, 0x00, 0xdc, 0x04, 0x00, 0x00, 0x00, 0x04, 0x00, 0x00,
  0x24, 0x03, 0x00, 0x00, 0x90, 0x02, 0x00, 0x00, 0xc4, 0x01, 0x00, 0x00,
  0x38, 0x01, 0x00, 0x00, 0x88, 0x00, 0x00, 0x00, 0x10, 0x00, 0x00, 0x00,
  0x04, 0x00, 0x00, 0x00, 0x6d, 0x61, 0x69, 0x6e, 0x00, 0x00, 0x00, 0x00,
  0x9a, 0xfd, 0xff, 0xff, 0x04, 0x00, 0x00, 0x00, 0x10, 0x00, 0x00, 0x00,
  0x04, 0x00, 0x00, 0x00, 0x01, 0x00, 0x00, 0x00, 0x16, 0x00, 0x00, 0x00,
  0x01, 0x00, 0x00, 0x00, 0x15, 0x00, 0x00, 0x00, 0x64, 0xbd, 0xff, 0xff,
  0x14, 0x00, 0x00, 0x00, 0x17, 0x00, 0x00, 0x00, 0x18, 0x00, 0x00, 0x00,
  0x40, 0x00, 0x00, 0x00, 0x30, 0x00, 0x00, 0x00, 0x02, 0x00, 0x00, 0x00,
  0x01, 0x00, 0x00, 0x00, 0x01, 0x00, 0x00, 0x00, 0x19, 0x00, 0x00, 0x00,
  0x53, 0x74, 0x61, 0x74, 0x65, 0x66, 0x75, 0x6c, 0x50, 0x61, 0x72, 0x74,
  0x69, 0x74, 0x69, 0x6f, 0x6e, 0x65, 0x64, 0x43, 0x61, 0x6c, 0x6c, 0x3a,
  0x30, 0x00, 0x00, 0x00, 0x02, 0x00, 0x00, 0x00, 0xff, 0xff, 0xff, 0xff,
  0x01, 0x00, 0x00, 0x00, 0x34, 0xbd, 0xff, 0xff, 0x02, 0xfa, 0xff, 0xff,
  0x00, 0x00, 0x00, 0x08, 0x03, 0x00, 0x00, 0x00, 0x18, 0x00, 0x00, 0x00,
  0x0c, 0x00, 0x00, 0x00, 0x04, 0x00, 0x00, 0x00, 0x50, 0xbd, 0xff, 0xff,
  0x01, 0x00, 0x00, 0x00, 0x15, 0x00, 0x00, 0x00, 0x03, 0x00, 0x00, 0x00,
  0x14, 0x00, 0x00, 0x00, 0x05, 0x00, 0x00, 0x00, 0x01, 0x00, 0x00, 0x00,
  0xec, 0xbd, 0xff, 0xff, 0x14, 0x00, 0x00, 0x00, 0x16, 0x00, 0x00, 0x00,
  0x18, 0x00, 0x00, 0x00, 0x64, 0x00, 0x00, 0x00, 0x54, 0x00, 0x00, 0x00,
  0x02, 0x00, 0x00, 0x00, 0x01, 0x00, 0x00, 0x00, 0x01, 0x00, 0x00, 0x00,
  0x3e, 0x00, 0x00, 0x00, 0x73, 0x65, 0x71, 0x75, 0x65, 0x6e, 0x74, 0x69,
  0x61, 0x6c, 0x5f, 0x36, 0x31, 0x2f, 0x64, 0x65, 0x6e, 0x73, 0x65, 0x5f,
  0x31, 0x32, 0x31, 0x2f, 0x4d, 0x61, 0x74, 0x4d, 0x75, 0x6c, 0x3b, 0x73,
  0x65, 0x71, 0x75, 0x65, 0x6e, 0x74, 0x69, 0x61, 0x6c, 0x5f, 0x36, 0x31,
  0x2f, 0x64, 0x65, 0x6e, 0x73, 0x65, 0x5f, 0x31, 0x32, 0x31, 0x2f, 0x42,
  0x69, 0x61, 0x73, 0x41, 0x64, 0x64, 0x00, 0x00, 0x02, 0x00, 0x00, 0x00,
  0xff, 0xff, 0xff, 0xff, 0x01, 0x00, 0x00, 0x00, 0xe0, 0xbd, 0xff, 0xff,
  0xba, 0xfe, 0xff, 0xff, 0x04, 0x00, 0x00, 0x00, 0x10, 0x00, 0x00, 0x00,
  0x04, 0x00, 0x00, 0x00, 0x01, 0x00, 0x00, 0x00, 0x14, 0x00, 0x00, 0x00,
  0x01, 0x00, 0x00, 0x00, 0x13, 0x00, 0x00, 0x00, 0x70, 0xf9, 0xff, 0xff,
  0x0e, 0x00, 0x00, 0x00, 0x00, 0x00, 0x00, 0x0e, 0x01, 0x00, 0x00, 0x00,
  0x94, 0xbe, 0xff, 0xff, 0x14, 0x00, 0x00, 0x00, 0x15, 0x00, 0x00, 0x00,
  0x18, 0x00, 0x00, 0x00, 0x44, 0x00, 0x00, 0x00, 0x34, 0x00, 0x00, 0x00,
  0x02, 0x00, 0x00, 0x00, 0x01, 0x00, 0x00, 0x00, 0x10, 0x00, 0x00, 0x00,
  0x1f, 0x00, 0x00, 0x00, 0x73, 0x65, 0x71, 0x75, 0x65, 0x6e, 0x74, 0x69,
  0x61, 0x6c, 0x5f, 0x36, 0x31, 0x2f, 0x64, 0x65, 0x6e, 0x73, 0x65, 0x5f,
  0x31, 0x32, 0x30, 0x2f, 0x53, 0x69, 0x67, 0x6d, 0x6f, 0x69, 0x64, 0x00,
  0x02, 0x00, 0x00, 0x00, 0xff, 0xff, 0xff, 0xff, 0x10, 0x00, 0x00, 0x00,
  0x68, 0xbe, 0xff, 0xff, 0x36, 0xfb, 0xff, 0xff, 0x00, 0x00, 0x00, 0x08,
  0x03, 0x00, 0x00, 0x00, 0x18, 0x00, 0x00, 0x00, 0x0c, 0x00, 0x00, 0x00,
  0x04, 0x00, 0x00, 0x00, 0x84, 0xbe, 0xff, 0xff, 0x01, 0x00, 0x00, 0x00,
  0x13, 0x00, 0x00, 0x00, 0x03, 0x00, 0x00, 0x00, 0x12, 0x00, 0x00, 0x00,
  0x04, 0x00, 0x00, 0x00, 0x02, 0x00, 0x00, 0x00, 0x0c, 0xfa, 0xff, 0xff,
  0x09, 0x00, 0x00, 0x00, 0x00, 0x00, 0x00, 0x09, 0x01, 0x00, 0x00, 0x00,
  0x30, 0xbf, 0xff, 0xff, 0x14, 0x00, 0x00, 0x00, 0x14, 0x00, 0x00, 0x00,
  0x18, 0x00, 0x00, 0x00, 0x64, 0x00, 0x00, 0x00, 0x54, 0x00, 0x00, 0x00,
  0x02, 0x00, 0x00, 0x00, 0x01, 0x00, 0x00, 0x00, 0x10, 0x00, 0x00, 0x00,
  0x3e, 0x00, 0x00, 0x00, 0x73, 0x65, 0x71, 0x75, 0x65, 0x6e, 0x74, 0x69,
  0x61, 0x6c, 0x5f, 0x36, 0x31, 0x2f, 0x64, 0x65, 0x6e, 0x73, 0x65, 0x5f,
  0x31, 0x32, 0x30, 0x2f, 0x4d, 0x61, 0x74, 0x4d, 0x75, 0x6c, 0x3b, 0x73,
  0x65, 0x71, 0x75, 0x65, 0x6e, 0x74, 0x69, 0x61, 0x6c, 0x5f, 0x36, 0x31,
  0x2f, 0x64, 0x65, 0x6e, 0x73, 0x65, 0x5f, 0x31, 0x32, 0x30, 0x2f, 0x42,
  0x69, 0x61, 0x73, 0x41, 0x64, 0x64, 0x00, 0x00, 0x02, 0x00, 0x00, 0x00,
  0xff, 0xff, 0xff, 0xff, 0x10, 0x00, 0x00, 0x00, 0x08, 0xc0, 0xff, 0xff,
  0x00, 0x00, 0x0a, 0x00, 0x10, 0x00, 0x04, 0x00, 0x08, 0x00, 0x0c, 0x00,
  0x0a, 0x00, 0x00, 0x00, 0x02, 0x00, 0x00, 0x00, 0x10, 0x00, 0x00, 0x00,
  0x04, 0x00, 0x00, 0x00, 0x01, 0x00, 0x00, 0x00, 0x12, 0x00, 0x00, 0x00,
  0x02, 0x00, 0x00, 0x00, 0x11, 0x00, 0x00, 0x00, 0x03, 0x00, 0x00, 0x00,
  0xc4, 0xfa, 0xff, 0xff, 0x16, 0x00, 0x00, 0x00, 0x00, 0x00, 0x00, 0x16,
  0x01, 0x00, 0x00, 0x00, 0xe8, 0xbf, 0xff, 0xff, 0x14, 0x00, 0x00, 0x00,
  0x13, 0x00, 0x00, 0x00, 0x18, 0x00, 0x00, 0x00, 0x48, 0x00, 0x00, 0x00,
  0x38, 0x00, 0x00, 0x00, 0x02, 0x00, 0x00, 0x00, 0x01, 0x00, 0x00, 0x00,
  0x80, 0x00, 0x00, 0x00, 0x20, 0x00, 0x00, 0x00, 0x73, 0x65, 0x71, 0x75,
  0x65, 0x6e, 0x74, 0x69, 0x61, 0x6c, 0x5f, 0x36, 0x31, 0x2f, 0x66, 0x6c,
  0x61, 0x74, 0x74, 0x65, 0x6e, 0x5f, 0x36, 0x30, 0x2f, 0x52, 0x65, 0x73,
  0x68, 0x61, 0x70, 0x65, 0x00, 0x00, 0x00, 0x00, 0x02, 0x00, 0x00, 0x00,
  0xff, 0xff, 0xff, 0xff, 0x80, 0x00, 0x00, 0x00, 0xc0, 0xbf, 0xff, 0xff,
  0x8e, 0xfc, 0xff, 0xff, 0x00, 0x00, 0x00, 0x05, 0x01, 0x00, 0x00, 0x00,
  0x30, 0x00, 0x00, 0x00, 0x24, 0x00, 0x00, 0x00, 0x04, 0x00, 0x00, 0x00,
  0x80, 0xfc, 0xff, 0xff, 0x00, 0x00, 0x00, 0x01, 0x02, 0x00, 0x00, 0x00,
  0x02, 0x00, 0x00, 0x00, 0x02, 0x00, 0x00, 0x00, 0x02, 0x00, 0x00, 0x00,
  0x00, 0x00, 0x00, 0x01, 0x01, 0x00, 0x00, 0x00, 0x11, 0x00, 0x00, 0x00,
  0x01, 0x00, 0x00, 0x00, 0x10, 0x00, 0x00, 0x00, 0x88, 0xc0, 0xff, 0xff,
  0x14, 0x00, 0x00, 0x00, 0x12, 0x00, 0x00, 0x00, 0x20, 0x00, 0x00, 0x00,
  0x80, 0x00, 0x00, 0x00, 0x68, 0x00, 0x00, 0x00, 0x04, 0x00, 0x00, 0x00,
  0x01, 0x00, 0x00, 0x00, 0x04, 0x00, 0x00, 0x00, 0x04, 0x00, 0x00, 0x00,
  0x08, 0x00, 0x00, 0x00, 0x49, 0x00, 0x00, 0x00, 0x73, 0x65, 0x71, 0x75,
  0x65, 0x6e, 0x74, 0x69, 0x61, 0x6c, 0x5f, 0x36, 0x31, 0x2f, 0x61, 0x63,
  0x74, 0x69, 0x76, 0x61, 0x74, 0x69, 0x6f, 0x6e, 0x5f, 0x31, 0x36, 0x36,
  0x2f, 0x52, 0x65, 0x6c, 0x75, 0x3b, 0x73, 0x65, 0x71, 0x75, 0x65, 0x6e,
  0x74, 0x69, 0x61, 0x6c, 0x5f, 0x36, 0x31, 0x2f, 0x6d, 0x61, 0x78, 0x5f,
  0x70, 0x6f, 0x6f, 0x6c, 0x69, 0x6e, 0x67, 0x32, 0x64, 0x5f, 0x32, 0x31,
  0x38, 0x2f, 0x4d, 0x61, 0x78, 0x50, 0x6f, 0x6f, 0x6c, 0x00, 0x00, 0x00,
  0x04, 0x00, 0x00, 0x00, 0xff, 0xff, 0xff, 0xff, 0x04, 0x00, 0x00, 0x00,
  0x04, 0x00, 0x00, 0x00, 0x08, 0x00, 0x00, 0x00, 0x98, 0xc0, 0xff, 0xff,
  0x4e, 0xfe, 0xff, 0xff, 0x00, 0x00, 0x00, 0x01, 0x24, 0x00, 0x00, 0x00,
  0x18, 0x00, 0x00, 0x00, 0x04, 0x00, 0x00, 0x00, 0x4e, 0xfc, 0xff, 0xff,
  0x01, 0x00, 0x00, 0x00, 0x01, 0x00, 0x00, 0x00, 0x00, 0x00, 0x00, 0x01,
  0x01, 0x00, 0x00, 0x00, 0x10, 0x00, 0x00, 0x00, 0x03, 0x00, 0x00, 0x00,
  0x0f, 0x00, 0x00, 0x00, 0x08, 0x00, 0x00, 0x00, 0x0b, 0x00, 0x00, 0x00,
  0x58, 0xc1, 0xff, 0xff, 0x14, 0x00, 0x00, 0x00, 0x11, 0x00, 0x00, 0x00,
  0x20, 0x00, 0x00, 0x00, 0x88, 0x00, 0x00, 0x00, 0x70, 0x00, 0x00, 0x00,
  0x04, 0x00, 0x00, 0x00, 0x01, 0x00, 0x00, 0x00, 0x09, 0x00, 0x00, 0x00,
  0x09, 0x00, 0x00, 0x00, 0x08, 0x00, 0x00, 0x00, 0x51, 0x00, 0x00, 0x00,
  0x73, 0x65, 0x71, 0x75, 0x65, 0x6e, 0x74, 0x69, 0x61, 0x6c, 0x5f, 0x36,
  0x31, 0x2f, 0x63, 0x6f, 0x6e, 0x76, 0x32, 0x64, 0x5f, 0x32, 0x31, 0x38,
  0x2f, 0x42, 0x69, 0x61, 0x73, 0x41, 0x64, 0x64, 0x3b, 0x73, 0x65, 0x71,
  0x75, 0x65, 0x6e, 0x74, 0x69, 0x61, 0x6c, 0x5f, 0x36, 0x31, 0x2f, 0x63,
  0x6f, 0x6e, 0x76, 0x32, 0x64, 0x5f, 0x32, 0x31, 0x38, 0x2f, 0x43, 0x6f,
  0x6e, 0x76, 0x32, 0x44, 0x3b, 0x63, 0x6f, 0x6e, 0x76, 0x32, 0x64, 0x5f,
  0x32, 0x31, 0x38, 0x2f, 0x62, 0x69, 0x61, 0x73, 0x31, 0x00, 0x00, 0x00,
  0x04, 0x00, 0x00, 0x00, 0xff, 0xff, 0xff, 0xff, 0x09, 0x00, 0x00, 0x00,
  0x09, 0x00, 0x00, 0x00, 0x08, 0x00, 0x00, 0x00, 0x70, 0xc1, 0xff, 0xff,
  0x3e, 0xfe, 0xff, 0xff, 0x00, 0x00, 0x00, 0x05, 0x01, 0x00, 0x00, 0x00,
  0x30, 0x00, 0x00, 0x00, 0x24, 0x00, 0x00, 0x00, 0x04, 0x00, 0x00, 0x00,
  0x30, 0xfe, 0xff, 0xff, 0x00, 0x00, 0x00, 0x01, 0x02, 0x00, 0x00, 0x00,
  0x02, 0x00, 0x00, 0x00, 0x02, 0x00, 0x00, 0x00, 0x02, 0x00, 0x00, 0x00,
  0x00, 0x00, 0x00, 0x01, 0x01, 0x00, 0x00, 0x00, 0x0f, 0x00, 0x00, 0x00,
  0x01, 0x00, 0x00, 0x00, 0x0e, 0x00, 0x00, 0x00, 0x38, 0xc2, 0xff, 0xff,
  0x14, 0x00, 0x00, 0x00, 0x10, 0x00, 0x00, 0x00, 0x20, 0x00, 0x00, 0x00,
  0x80, 0x00, 0x00, 0x00, 0x68, 0x00, 0x00, 0x00, 0x04, 0x00, 0x00, 0x00,
  0x01, 0x00, 0x00, 0x00, 0x0d, 0x00, 0x00, 0x00, 0x0d, 0x00, 0x00, 0x00,
  0x04, 0x00, 0x00, 0x00, 0x49, 0x00, 0x00, 0x00, 0x73, 0x65, 0x71, 0x75,
  0x65, 0x6e, 0x74, 0x69, 0x61, 0x6c, 0x5f, 0x36, 0x31, 0x2f, 0x61, 0x63,
  0x74, 0x69, 0x76, 0x61, 0x74, 0x69, 0x6f, 0x6e, 0x5f, 0x31, 0x36, 0x35,
  0x2f, 0x52, 0x65, 0x6c, 0x75, 0x3b, 0x73, 0x65, 0x71, 0x75, 0x65, 0x6e,
  0x74, 0x69, 0x61, 0x6c, 0x5f, 0x36, 0x31, 0x2f, 0x6d, 0x61, 0x78, 0x5f,
  0x70, 0x6f, 0x6f, 0x6c, 0x69, 0x6e, 0x67, 0x32, 0x64, 0x5f, 0x32, 0x31,
  0x37, 0x2f, 0x4d, 0x61, 0x78, 0x50, 0x6f, 0x6f, 0x6c, 0x00, 0x00, 0x00,
  0x04, 0x00, 0x00, 0x00, 0xff, 0xff, 0xff, 0xff, 0x0d, 0x00, 0x00, 0x00,
  0x0d, 0x00, 0x00, 0x00, 0x04, 0x00, 0x00, 0x00, 0x2c, 0xc3, 0xff, 0xff,
  0x00, 0x00, 0x0e, 0x00, 0x14, 0x00, 0x00, 0x00, 0x08, 0x00, 0x0c, 0x00,
  0x07, 0x00, 0x10, 0x00, 0x0e, 0x00, 0x00, 0x00, 0x00, 0x00, 0x00, 0x01,
  0x24, 0x00, 0x00, 0x00, 0x18, 0x00, 0x00, 0x00, 0x04, 0x00, 0x00, 0x00,
  0x0e, 0xfe, 0xff, 0xff, 0x01, 0x00, 0x00, 0x00, 0x01, 0x00, 0x00, 0x00,
  0x00, 0x00, 0x00, 0x01, 0x01, 0x00, 0x00, 0x00, 0x0e, 0x00, 0x00, 0x00,
  0x03, 0x00, 0x00, 0x00, 0x0d, 0x00, 0x00, 0x00, 0x07, 0x00, 0x00, 0x00,
  0x0a, 0x00, 0x00, 0x00, 0x18, 0xc3, 0xff, 0xff, 0x14, 0x00, 0x00, 0x00,
  0x0f, 0x00, 0x00, 0x00, 0x20, 0x00, 0x00, 0x00, 0x88, 0x00, 0x00, 0x00,
  0x70, 0x00, 0x00, 0x00, 0x04, 0x00, 0x00, 0x00, 0x01, 0x00, 0x00, 0x00,
  0x1a, 0x00, 0x00, 0x00, 0x1a, 0x00, 0x00, 0x00, 0x04, 0x00, 0x00, 0x00,
  0x51, 0x00, 0x00, 0x00, 0x73, 0x65, 0x71, 0x75, 0x65, 0x6e, 0x74, 0x69,
  0x61, 0x6c, 0x5f, 0x36, 0x31, 0x2f, 0x63, 0x6f, 0x6e, 0x76, 0x32, 0x64,
  0x5f, 0x32, 0x31, 0x37, 0x2f, 0x42, 0x69, 0x61, 0x73, 0x41, 0x64, 0x64,
  0x3b, 0x73, 0x65, 0x71, 0x75, 0x65, 0x6e, 0x74, 0x69, 0x61, 0x6c, 0x5f,
  0x36, 0x31, 0x2f, 0x63, 0x6f, 0x6e, 0x76, 0x32, 0x64, 0x5f, 0x32, 0x31,
  0x37, 0x2f, 0x43, 0x6f, 0x6e, 0x76, 0x32, 0x44, 0x3b, 0x63, 0x6f, 0x6e,
  0x76, 0x32, 0x64, 0x5f, 0x32, 0x31, 0x37, 0x2f, 0x62, 0x69, 0x61, 0x73,
  0x31, 0x00, 0x00, 0x00, 0x04, 0x00, 0x00, 0x00, 0xff, 0xff, 0xff, 0xff,
  0x1a, 0x00, 0x00, 0x00, 0x1a, 0x00, 0x00, 0x00, 0x04, 0x00, 0x00, 0x00,
  0x14, 0xc4, 0xff, 0xff, 0x00, 0x00, 0x0e, 0x00, 0x18, 0x00, 0x08, 0x00,
  0x0c, 0x00, 0x10, 0x00, 0x07, 0x00, 0x14, 0x00, 0x0e, 0x00, 0x00, 0x00,
  0x00, 0x00, 0x00, 0x05, 0x01, 0x00, 0x00, 0x00, 0x40, 0x00, 0x00, 0x00,
  0x34, 0x00, 0x00, 0x00, 0x14, 0x00, 0x00, 0x00, 0x10, 0x00, 0x1c, 0x00,
  0x1b, 0x00, 0x14, 0x00, 0x10, 0x00, 0x0c, 0x00, 0x08, 0x00, 0x07, 0x00,
  0x10, 0x00, 0x00, 0x00, 0x00, 0x00, 0x00, 0x01, 0x02, 0x00, 0x00, 0x00,
  0x02, 0x00, 0x00, 0x00, 0x02, 0x00, 0x00, 0x00, 0x02, 0x00, 0x00, 0x00,
  0x00, 0x00, 0x00, 0x01, 0x01, 0x00, 0x00, 0x00, 0x0d, 0x00, 0x00, 0x00,
  0x01, 0x00, 0x00, 0x00, 0x0c, 0x00, 0x00, 0x00, 0x04, 0xff, 0xff, 0xff,
  0x11, 0x00, 0x00, 0x00, 0x00, 0x00, 0x00, 0x11, 0x01, 0x00, 0x00, 0x00,
  0x28, 0xc4, 0xff, 0xff, 0x14, 0x00, 0x00, 0x00, 0x0e, 0x00, 0x00, 0x00,
  0x20, 0x00, 0x00, 0x00, 0x80, 0x00, 0x00, 0x00, 0x68, 0x00, 0x00, 0x00,
  0x04, 0x00, 0x00, 0x00, 0x01, 0x00, 0x00, 0x00, 0x20, 0x00, 0x00, 0x00,
  0x20, 0x00, 0x00, 0x00, 0x02, 0x00, 0x00, 0x00, 0x49, 0x00, 0x00, 0x00,
  0x73, 0x65, 0x71, 0x75, 0x65, 0x6e, 0x74, 0x69, 0x61, 0x6c, 0x5f, 0x36,
  0x31, 0x2f, 0x61, 0x63, 0x74, 0x69, 0x76, 0x61, 0x74, 0x69, 0x6f, 0x6e,
  0x5f, 0x31, 0x36, 0x34, 0x2f, 0x52, 0x65, 0x6c, 0x75, 0x3b, 0x73, 0x65,
  0x71, 0x75, 0x65, 0x6e, 0x74, 0x69, 0x61, 0x6c, 0x5f, 0x36, 0x31, 0x2f,
  0x6d, 0x61, 0x78, 0x5f, 0x70, 0x6f, 0x6f, 0x6c, 0x69, 0x6e, 0x67, 0x32,
  0x64, 0x5f, 0x32, 0x31, 0x36, 0x2f, 0x4d, 0x61, 0x78, 0x50, 0x6f, 0x6f,
  0x6c, 0x00, 0x00, 0x00, 0x04, 0x00, 0x00, 0x00, 0xff, 0xff, 0xff, 0xff,
  0x20, 0x00, 0x00, 0x00, 0x20, 0x00, 0x00, 0x00, 0x02, 0x00, 0x00, 0x00,
  0x1c, 0xc5, 0xff, 0xff, 0x00, 0x00, 0x0e, 0x00, 0x16, 0x00, 0x00, 0x00,
  0x08, 0x00, 0x0c, 0x00, 0x07, 0x00, 0x10, 0x00, 0x0e, 0x00, 0x00, 0x00,
  0x00, 0x00, 0x00, 0x01, 0x30, 0x00, 0x00, 0x00, 0x24, 0x00, 0x00, 0x00,
  0x10, 0x00, 0x00, 0x00, 0x00, 0x00, 0x0a, 0x00, 0x10, 0x00, 0x0f, 0x00,
  0x04, 0x00, 0x08, 0x00, 0x0a, 0x00, 0x00, 0x00, 0x01, 0x00, 0x00, 0x00,
  0x01, 0x00, 0x00, 0x00, 0x00, 0x00, 0x00, 0x01, 0x01, 0x00, 0x00, 0x00,
  0x0c, 0x00, 0x00, 0x00, 0x03, 0x00, 0x00, 0x00, 0x00, 0x00, 0x00, 0x00,
  0x06, 0x00, 0x00, 0x00, 0x09, 0x00, 0x00, 0x00, 0x0c, 0x00, 0x10, 0x00,
  0x0b, 0x00, 0x00, 0x00, 0x0c, 0x00, 0x04, 0x00, 0x0c, 0x00, 0x00, 0x00,
  0x03, 0x00, 0x00, 0x00, 0x00, 0x00, 0x00, 0x03, 0x01, 0x00, 0x00, 0x00,
  0x30, 0xc5, 0xff, 0xff, 0x14, 0x00, 0x00, 0x00, 0x0d, 0x00, 0x00, 0x00,
  0x20, 0x00, 0x00, 0x00, 0x88, 0x00, 0x00, 0x00, 0x70, 0x00, 0x00, 0x00,
  0x04, 0x00, 0x00, 0x00, 0x01, 0x00, 0x00, 0x00, 0x40, 0x00, 0x00, 0x00,
  0x40, 0x00, 0x00, 0x00, 0x02, 0x00, 0x00, 0x00, 0x51, 0x00, 0x00, 0x00,
  0x73, 0x65, 0x71, 0x75, 0x65, 0x6e, 0x74, 0x69, 0x61, 0x6c, 0x5f, 0x36,
  0x31, 0x2f, 0x63, 0x6f, 0x6e, 0x76, 0x32, 0x64, 0x5f, 0x32, 0x31, 0x36,
  0x2f, 0x42, 0x69, 0x61, 0x73, 0x41, 0x64, 0x64, 0x3b, 0x73, 0x65, 0x71,
  0x75, 0x65, 0x6e, 0x74, 0x69, 0x61, 0x6c, 0x5f, 0x36, 0x31, 0x2f, 0x63,
  0x6f, 0x6e, 0x76, 0x32, 0x64, 0x5f, 0x32, 0x31, 0x36, 0x2f, 0x43, 0x6f,
  0x6e, 0x76, 0x32, 0x44, 0x3b, 0x63, 0x6f, 0x6e, 0x76, 0x32, 0x64, 0x5f,
  0x32, 0x31, 0x36, 0x2f, 0x62, 0x69, 0x61, 0x73, 0x31, 0x00, 0x00, 0x00,
  0x04, 0x00, 0x00, 0x00, 0xff, 0xff, 0xff, 0xff, 0x40, 0x00, 0x00, 0x00,
  0x40, 0x00, 0x00, 0x00, 0x02, 0x00, 0x00, 0x00, 0x48, 0xc5, 0xff, 0xff,
  0x26, 0xc6, 0xff, 0xff, 0x04, 0x00, 0x00, 0x00, 0x20, 0x00, 0x00, 0x00,
  0x5f, 0xdf, 0x26, 0x3d, 0x63, 0xb9, 0xd1, 0xbc, 0x84, 0x0d, 0x02, 0xbc,
  0x79, 0x2f, 0x9d, 0x3d, 0x9b, 0x11, 0x00, 0x3d, 0xb8, 0x24, 0x82, 0xbb,
  0xd9, 0x29, 0xbc, 0x3c, 0x17, 0x6b, 0xa5, 0xbb, 0x3a, 0xc6, 0xff, 0xff,
  0x10, 0x00, 0x00, 0x00, 0x0c, 0x00, 0x00, 0x00, 0x10, 0x00, 0x00, 0x00,
  0x64, 0x00, 0x00, 0x00, 0x01, 0x00, 0x00, 0x00, 0x08, 0x00, 0x00, 0x00,
  0x50, 0x00, 0x00, 0x00, 0x73, 0x65, 0x71, 0x75, 0x65, 0x6e, 0x74, 0x69,
  0x61, 0x6c, 0x5f, 0x36, 0x31, 0x2f, 0x63, 0x6f, 0x6e, 0x76, 0x32, 0x64,
  0x5f, 0x32, 0x31, 0x38, 0x2f, 0x42, 0x69, 0x61, 0x73, 0x41, 0x64, 0x64,
  0x3b, 0x73, 0x65, 0x71, 0x75, 0x65, 0x6e, 0x74, 0x69, 0x61, 0x6c, 0x5f,
  0x36, 0x31, 0x2f, 0x63, 0x6f, 0x6e, 0x76, 0x32, 0x64, 0x5f, 0x32, 0x31,
  0x38, 0x2f, 0x43, 0x6f, 0x6e, 0x76, 0x32, 0x44, 0x3b, 0x63, 0x6f, 0x6e,
  0x76, 0x32, 0x64, 0x5f, 0x32, 0x31, 0x38, 0x2f, 0x62, 0x69, 0x61, 0x73,
  0x00, 0x00, 0x00, 0x00, 0xec, 0xc5, 0xff, 0xff, 0xca, 0xc6, 0xff, 0xff,
  0x04, 0x00, 0x00, 0x00, 0x10, 0x00, 0x00, 0x00, 0xa2, 0x19, 0x0e, 0x3d,
  0x9b, 0x74, 0x12, 0x3d, 0x5e, 0x45, 0x19, 0xbd, 0x7a, 0x21, 0x31, 0x3c,
  0xce, 0xc6, 0xff, 0xff, 0x10, 0x00, 0x00, 0x00, 0x0b, 0x00, 0x00, 0x00,
  0x10, 0x00, 0x00, 0x00, 0x64, 0x00, 0x00, 0x00, 0x01, 0x00, 0x00, 0x00,
  0x04, 0x00, 0x00, 0x00, 0x50, 0x00, 0x00, 0x00, 0x73, 0x65, 0x71, 0x75,
  0x65, 0x6e, 0x74, 0x69, 0x61, 0x6c, 0x5f, 0x36, 0x31, 0x2f, 0x63, 0x6f,
  0x6e, 0x76, 0x32, 0x64, 0x5f, 0x32, 0x31, 0x37, 0x2f, 0x42, 0x69, 0x61,
  0x73, 0x41, 0x64, 0x64, 0x3b, 0x73, 0x65, 0x71, 0x75, 0x65, 0x6e, 0x74,
  0x69, 0x61, 0x6c, 0x5f, 0x36, 0x31, 0x2f, 0x63, 0x6f, 0x6e, 0x76, 0x32,
  0x64, 0x5f, 0x32, 0x31, 0x37, 0x2f, 0x43, 0x6f, 0x6e, 0x76, 0x32, 0x44,
  0x3b, 0x63, 0x6f, 0x6e, 0x76, 0x32, 0x64, 0x5f, 0x32, 0x31, 0x37, 0x2f,
  0x62, 0x69, 0x61, 0x73, 0x00, 0x00, 0x00, 0x00, 0x80, 0xc6, 0xff, 0xff,
  0x5e, 0xc7, 0xff, 0xff, 0x04, 0x00, 0x00, 0x00, 0x08, 0x00, 0x00, 0x00,
  0x7c, 0xe7, 0xfb, 0x3a, 0x64, 0xed, 0x97, 0x3b, 0x5a, 0xc7, 0xff, 0xff,
  0x10, 0x00, 0x00, 0x00, 0x0a, 0x00, 0x00, 0x00, 0x10, 0x00, 0x00, 0x00,
  0x64, 0x00, 0x00, 0x00, 0x01, 0x00, 0x00, 0x00, 0x02, 0x00, 0x00, 0x00,
  0x50, 0x00, 0x00, 0x00, 0x73, 0x65, 0x71, 0x75, 0x65, 0x6e, 0x74, 0x69,
  0x61, 0x6c, 0x5f, 0x36, 0x31, 0x2f, 0x63, 0x6f, 0x6e, 0x76, 0x32, 0x64,
  0x5f, 0x32, 0x31, 0x36, 0x2f, 0x42, 0x69, 0x61, 0x73, 0x41, 0x64, 0x64,
  0x3b, 0x73, 0x65, 0x71, 0x75, 0x65, 0x6e, 0x74, 0x69, 0x61, 0x6c, 0x5f,
  0x36, 0x31, 0x2f, 0x63, 0x6f, 0x6e, 0x76, 0x32, 0x64, 0x5f, 0x32, 0x31,
  0x36, 0x2f, 0x43, 0x6f, 0x6e, 0x76, 0x32, 0x44, 0x3b, 0x63, 0x6f, 0x6e,
  0x76, 0x32, 0x64, 0x5f, 0x32, 0x31, 0x36, 0x2f, 0x62, 0x69, 0x61, 0x73,
  0x00, 0x00, 0x00, 0x00, 0x0c, 0xc7, 0xff, 0xff, 0xea, 0xc7, 0xff, 0xff,
  0x04, 0x00, 0x00, 0x00, 0x80, 0x0c, 0x00, 0x00, 0xee, 0xa1, 0xe3, 0xbd,
  0xcd, 0xd3, 0x03, 0x3d, 0x05, 0x28, 0xd7, 0x3d, 0x8d, 0x49, 0x35, 0xbd,
  0xef, 0xbb, 0x0d, 0xbe, 0x71, 0xa5, 0x6a, 0xbd, 0xe7, 0x2c, 0xf0, 0x3d,
  0x9f, 0x14, 0x01, 0xbe, 0x6e, 0x68, 0x16, 0x3e, 0xd3, 0x89, 0x1c, 0xbd,
  0x45, 0xc0, 0xc1, 0xbd, 0xca, 0xc4, 0xb8, 0x3d, 0x25, 0x79, 0x8f, 0x3d,
  0x5f, 0x08, 0xf1, 0x3d, 0xe0, 0x41, 0x2d, 0xbe, 0x4e, 0x7a, 0x58, 0x3d,
  0xd1, 0xaf, 0x60, 0x3d, 0x33, 0xe6, 0xe5, 0x3d, 0xb5, 0xf7, 0x34, 0x3d,
  0xf9, 0xfb, 0xa5, 0xbc, 0xbb, 0x83, 0x29, 0xbd, 0x77, 0xc0, 0xdd, 0x3c,
  0xd0, 0xf8, 0xff, 0xbc, 0x78, 0x6c, 0x96, 0xbb, 0xc2, 0x04, 0xf6, 0x3d,
  0x2e, 0x34, 0x6b, 0x3d, 0xc6, 0x8d, 0x4c, 0x3d, 0x0a, 0xf6, 0xa1, 0xbc,
  0x95, 0x0b, 0x50, 0x3d, 0x8b, 0xe6, 0xba, 0x3d, 0x35, 0xc3, 0x60, 0x3d,
  0x85, 0x18, 0x23, 0x3d, 0x32, 0x7d, 0xac, 0x3d, 0xb8, 0x4e, 0x92, 0xbd,
  0x8b, 0x70, 0x63, 0xbd, 0x0c, 0x6e, 0xe3, 0x3c, 0xf6, 0xa6, 0x5c, 0xbd,
  0x7a, 0x52, 0x73, 0x3d, 0xb7, 0xd0, 0x0e, 0xbe, 0x4a, 0x37, 0x00, 0x3d,
  0x38, 0xd6, 0x96, 0xbd, 0x15, 0xda, 0xb5, 0xbd, 0x29, 0x5d, 0x49, 0xbc,
  0x33, 0xe5, 0xcb, 0xbc, 0x3a, 0xe3, 0xb7, 0x3c, 0xd4, 0x86, 0x6b, 0xbd,
  0xe2, 0x09, 0x8d, 0x3d, 0x6e, 0xd3, 0x12, 0x3e, 0xcf, 0x9e, 0xeb, 0xbd,
  0xb9, 0xc5, 0xf8, 0x3d, 0xde, 0x08, 0x13, 0xbe, 0x49, 0xf7, 0x03, 0x3e,
  0x03, 0x1d, 0x1a, 0x3e, 0x58, 0x9d, 0xb4, 0xbd, 0x77, 0xfd, 0x14, 0x3d,
  0x6c, 0x26, 0x30, 0x3d, 0x10, 0x6f, 0x98, 0x3c, 0x60, 0xc4, 0xb3, 0x3c,
  0x50, 0x2b, 0x0a, 0xbe, 0x0c, 0xce, 0xd6, 0xbd, 0x9e, 0x8a, 0xa3, 0xbd,
  0x98, 0x49, 0xa5, 0xbd, 0xd8, 0x5b, 0xca, 0x3a, 0x23, 0x0c, 0xf9, 0xbd,
  0x69, 0x76, 0x84, 0x3d, 0x03, 0x73, 0xa8, 0x3d, 0x89, 0x32, 0x6c, 0x3d,
  0x00, 0x99, 0xe7, 0xbc, 0x83, 0xa6, 0xbc, 0x3d, 0xa4, 0xd6, 0x19, 0xbc,
  0xea, 0x9a, 0x46, 0x3d, 0xee, 0x71, 0x0a, 0x3d, 0xcf, 0xaf, 0x97, 0x3c,
  0x73, 0xd6, 0x1c, 0xbd, 0x76, 0xc7, 0xe2, 0x3c, 0x09, 0x56, 0x81, 0x3d,
  0x3a, 0xca, 0xee, 0x3d, 0x65, 0xb0, 0x2e, 0xbd, 0x34, 0x06, 0xd2, 0x3d,
  0xe5, 0xca, 0x93, 0xbd, 0x84, 0xff, 0xe7, 0xbc, 0xb5, 0xab, 0xca, 0x3d,
  0xfd, 0x1c, 0x0c, 0x3e, 0xe3, 0xb1, 0x24, 0x3e, 0x71, 0x83, 0x11, 0x3e,
  0x98, 0xa2, 0xb6, 0x3d, 0xd8, 0x71, 0xc0, 0x3d, 0x48, 0xc9, 0x81, 0x3d,
  0x6d, 0x4d, 0x00, 0xbd, 0xa8, 0x5d, 0x48, 0xbd, 0x4e, 0xae, 0xd5, 0xbd,
  0x7e, 0x49, 0xca, 0x3d, 0x3a, 0xfe, 0x02, 0x3e, 0xfa, 0x9d, 0x57, 0x3c,
  0x6e, 0x77, 0x36, 0xbb, 0x72, 0x92, 0xda, 0x3d, 0xaa, 0x33, 0x91, 0xbc,
  0x3c, 0x81, 0x90, 0xbd, 0xd9, 0xa7, 0x31, 0xbd, 0xb2, 0xc8, 0x68, 0x3c,
  0x6a, 0xdf, 0xb7, 0xbd, 0x9c, 0x82, 0x5d, 0x3b, 0xe9, 0x76, 0xd7, 0xbc,
  0xf4, 0x31, 0xba, 0x3d, 0xdf, 0xf2, 0x83, 0x3d, 0xd6, 0x98, 0x69, 0x3d,
  0x1f, 0x6c, 0x8c, 0xbc, 0x0c, 0x04, 0x83, 0xbc, 0x93, 0x77, 0x35, 0x3d,
  0x00, 0x35, 0xe5, 0x3c, 0x80, 0xbe, 0xbb, 0x3d, 0x48, 0xdb, 0x15, 0xbd,
  0xa9, 0xd0, 0xf2, 0xbd, 0x55, 0xf2, 0x44, 0xbd, 0x4c, 0x4e, 0x55, 0xbd,
  0x4e, 0x56, 0x1b, 0x3e, 0xd4, 0x19, 0x04, 0x3e, 0xc4, 0xeb, 0xc9, 0x3d,
  0x94, 0x42, 0x31, 0x3c, 0x26, 0x15, 0xbc, 0x3d, 0x42, 0x5b, 0xa3, 0xbc,
  0xd9, 0x5f, 0x51, 0xbd, 0xf9, 0xa9, 0x03, 0x3e, 0x74, 0xd4, 0xa8, 0x3d,
  0xbf, 0xc0, 0xa4, 0x3c, 0x1a, 0x7b, 0xc7, 0xbd, 0xf7, 0xdd, 0xa0, 0xbd,
  0xb9, 0x3d, 0x23, 0x3e, 0x05, 0xa4, 0x16, 0xbd, 0x22, 0x43, 0x68, 0x3d,
  0x92, 0xe8, 0xda, 0xbd, 0xf7, 0xa6, 0xae, 0xbd, 0x47, 0xe5, 0xfa, 0x3d,
  0xbe, 0x5a, 0xd7, 0x3d, 0x65, 0xab, 0x10, 0x3e, 0xfd, 0x24, 0x45, 0x3b,
  0xfd, 0x05, 0x06, 0x3e, 0x0b, 0xa2, 0x59, 0x3d, 0x1c, 0x8d, 0x43, 0x3c,
  0x67, 0xd2, 0xd6, 0x3d, 0x79, 0x6b, 0x27, 0xbd, 0xce, 0x98, 0x06, 0xbe,
  0x1a, 0x38, 0x35, 0x3d, 0x61, 0xf3, 0x1a, 0x3e, 0x08, 0xc6, 0xa8, 0x3d,
  0xeb, 0x7e, 0xa6, 0xbd, 0xa6, 0x8b, 0xcc, 0x3d, 0x6b, 0x94, 0x6c, 0xbc,
  0xd1, 0x57, 0x01, 0xbe, 0x62, 0x2e, 0x13, 0xbd, 0xee, 0x8f, 0x29, 0x3e,
  0x75, 0x9f, 0x6b, 0x3d, 0x01, 0x3c, 0xc5, 0x3d, 0x4a, 0x63, 0x11, 0xbd,
  0x30, 0x01, 0x86, 0xbd, 0xe6, 0xa1, 0x94, 0x3c, 0x88, 0x77, 0x26, 0x3e,
  0x92, 0x80, 0x40, 0xbc, 0x96, 0x4e, 0xdb, 0x3c, 0xa9, 0xdc, 0x38, 0x3e,
  0x8f, 0xa3, 0xb5, 0x3c, 0xf2, 0xb7, 0x90, 0xbc, 0x20, 0x6f, 0xd7, 0xbc,
  0x31, 0x5f, 0xbc, 0x3d, 0x24, 0x8c, 0x8c, 0xbd, 0x81, 0x8d, 0x03, 0x3d,
  0x5e, 0xa0, 0x94, 0xbc, 0x20, 0x36, 0x06, 0x3d, 0x87, 0xa4, 0x5c, 0x3c,
  0x8b, 0xd9, 0x81, 0xbd, 0x62, 0x6e, 0x37, 0x3e, 0xe2, 0x74, 0x2e, 0x3e,
  0x74, 0x80, 0xb1, 0xbc, 0xc1, 0x1f, 0x80, 0xbd, 0x1d, 0x74, 0x05, 0x3e,
  0x66, 0x6e, 0xd7, 0x3d, 0x8a, 0x09, 0x3a, 0x3e, 0x8d, 0x23, 0xdd, 0x3c,
  0x78, 0x3b, 0x41, 0x3e, 0x59, 0x6f, 0x04, 0x3e, 0xf6, 0x42, 0x01, 0x3d,
  0x8b, 0x01, 0x24, 0xbd, 0x75, 0x82, 0xb3, 0x3d, 0x3a, 0xae, 0x3f, 0xbd,
  0xd1, 0xdc, 0x24, 0x3e, 0xf8, 0xa7, 0x87, 0x3c, 0xaa, 0x34, 0xd3, 0x3d,
  0xc8, 0xdc, 0x28, 0xbc, 0x8f, 0xd9, 0x00, 0xbd, 0x6b, 0x39, 0x14, 0x3e,
  0xee, 0xcd, 0x6b, 0x3e, 0x61, 0x31, 0xed, 0xbc, 0xef, 0x8e, 0x3a, 0x3e,
  0xb1, 0x5f, 0x24, 0x3e, 0xab, 0xd4, 0x21, 0x3d, 0x69, 0xdc, 0x64, 0x3e,
  0xce, 0xab, 0x57, 0xbd, 0xe9, 0xa9, 0xa9, 0x3c, 0xce, 0x86, 0x51, 0x3e,
  0xee, 0x1a, 0x17, 0x3d, 0x8e, 0xbd, 0x95, 0xbc, 0x00, 0xa2, 0xb2, 0x3c,
  0x8c, 0x44, 0x07, 0xbe, 0xd7, 0x4f, 0x99, 0xbd, 0x99, 0x97, 0xc4, 0x3d,
  0x2f, 0xa9, 0x5d, 0x3c, 0x4e, 0x14, 0x00, 0x3e, 0x0d, 0x9b, 0x62, 0x3d,
  0x04, 0x59, 0x11, 0xbe, 0x7a, 0x1d, 0xb9, 0xbd, 0x48, 0xdc, 0xd2, 0xbd,
  0xb1, 0x7c, 0x97, 0xbd, 0x01, 0x46, 0xef, 0x3c, 0xef, 0x82, 0x87, 0xba,
  0x54, 0x2c, 0x5b, 0x3d, 0x8e, 0xd5, 0xf2, 0x3d, 0x8e, 0x04, 0xdd, 0xbd,
  0xdb, 0x27, 0x0d, 0x3e, 0x14, 0xe5, 0xca, 0xbd, 0x6a, 0x34, 0x99, 0x3d,
  0x77, 0x86, 0x61, 0x3d, 0x9e, 0x62, 0x04, 0x3e, 0x6b, 0xc6, 0x46, 0xbd,
  0xea, 0xbc, 0x2b, 0xbd, 0x85, 0x7b, 0x62, 0xbc, 0x4d, 0x50, 0x9b, 0x3d,
  0x58, 0xd5, 0xc9, 0xbd, 0x67, 0xd3, 0x1d, 0x3a, 0x69, 0xa6, 0x68, 0xbd,
  0x40, 0x11, 0xd8, 0xbc, 0xc2, 0x0a, 0xf5, 0xbd, 0x6e, 0x44, 0x78, 0x3c,
  0x0a, 0x9f, 0x37, 0xbd, 0xad, 0x44, 0x75, 0x3c, 0x9a, 0x33, 0xbc, 0xbd,
  0x7b, 0x64, 0x4e, 0xbd, 0xca, 0xad, 0xf6, 0xbc, 0x5b, 0x2b, 0x01, 0xbe,
  0xd3, 0xb6, 0xfe, 0x3d, 0x64, 0xed, 0x44, 0xbd, 0x3b, 0x81, 0xa5, 0x3c,
  0x9b, 0x63, 0x05, 0xbc, 0x72, 0xc6, 0xbf, 0xbd, 0x41, 0xb8, 0x05, 0xbe,
  0x8d, 0x49, 0x89, 0xbd, 0xb4, 0xf2, 0xca, 0x3d, 0xf6, 0x1e, 0xed, 0x3d,
  0x06, 0x08, 0xcc, 0xbc, 0x05, 0x47, 0xd9, 0x3d, 0xbe, 0x14, 0x0a, 0xbd,
  0x98, 0x12, 0xdd, 0x3d, 0x43, 0xa3, 0xfd, 0xbc, 0x43, 0xdd, 0x6c, 0xbd,
  0x1b, 0xa3, 0xe0, 0x3d, 0x16, 0x38, 0x4d, 0xbd, 0xcf, 0xf1, 0x16, 0x3d,
  0xfa, 0xef, 0xd9, 0x3d, 0x35, 0x83, 0xfe, 0xbd, 0x9c, 0x18, 0xae, 0x3d,
  0xf1, 0xb7, 0x78, 0xbd, 0x2e, 0x62, 0x98, 0x3c, 0xa0, 0xc1, 0xd1, 0xbd,
  0x54, 0x6b, 0x10, 0xbe, 0x2b, 0x9b, 0xc8, 0x3d, 0x46, 0x84, 0xa8, 0xbd,
  0xc3, 0x18, 0x32, 0x3d, 0x80, 0x25, 0x08, 0xbe, 0x78, 0x50, 0x99, 0x3d,
  0x39, 0x41, 0x21, 0xbb, 0x0e, 0xba, 0xa8, 0xbd, 0xef, 0x5e, 0xb8, 0xba,
  0xd3, 0xdf, 0x4d, 0x3d, 0x79, 0xb3, 0x0f, 0xbd, 0xf8, 0x8e, 0xa8, 0xbc,
  0x4c, 0x1a, 0x29, 0x3b, 0xed, 0x63, 0x15, 0x3d, 0xce, 0xe9, 0x7a, 0x3d,
  0xdc, 0xaa, 0x03, 0x3c, 0xed, 0x2e, 0x4d, 0x3d, 0xbe, 0x0c, 0x8c, 0xbd,
  0xcf, 0x52, 0x81, 0xbd, 0x38, 0xf7, 0xb5, 0xbd, 0xcd, 0x95, 0x02, 0xbe,
  0x51, 0xba, 0xd5, 0xbd, 0x51, 0x63, 0xbf, 0x3d, 0x2a, 0xec, 0xa9, 0x3d,
  0xb1, 0x80, 0xc3, 0xbd, 0x6f, 0x8e, 0xe4, 0xbb, 0x54, 0xd3, 0xee, 0x3d,
  0x27, 0x16, 0xde, 0xbd, 0x8b, 0x28, 0x17, 0x3d, 0xb1, 0x28, 0x10, 0xbe,
  0x84, 0x49, 0x60, 0xbd, 0xcb, 0x8d, 0xcc, 0xbd, 0x98, 0x99, 0x03, 0x3d,
  0x0a, 0xb9, 0xd6, 0xbd, 0x67, 0x08, 0x3a, 0xbd, 0xb5, 0x4c, 0x12, 0x3e,
  0xaf, 0x1c, 0x91, 0xbd, 0x38, 0x5f, 0x3f, 0x3d, 0x87, 0x4f, 0xf1, 0x3d,
  0x22, 0x36, 0x10, 0x3e, 0x7b, 0x77, 0x8e, 0xbd, 0x36, 0x42, 0xd3, 0xbd,
  0xf0, 0x2c, 0x72, 0x3d, 0x86, 0x2d, 0x0e, 0x3e, 0xf3, 0x6d, 0xc7, 0xbd,
  0xe9, 0xfe, 0xe0, 0x3d, 0x0e, 0xf7, 0xcc, 0x3d, 0xeb, 0xe9, 0x2c, 0xbe,
  0x1a, 0xa4, 0x89, 0xbd, 0x65, 0x0a, 0x91, 0xbd, 0x47, 0x30, 0x3b, 0x3d,
  0x6e, 0x46, 0x84, 0x3c, 0x96, 0xfd, 0x37, 0x3d, 0x65, 0x67, 0xed, 0xbd,
  0x3b, 0x11, 0x3b, 0xbe, 0xf5, 0xdf, 0xce, 0x3d, 0x8f, 0xd1, 0x1f, 0x3d,
  0xb9, 0xe3, 0x92, 0xbd, 0xd8, 0xc0, 0x36, 0x3e, 0x31, 0xd0, 0x2d, 0x3e,
  0xb2, 0xfb, 0x9b, 0xbd, 0x17, 0x6f, 0xa5, 0xbc, 0xa3, 0xab, 0xa9, 0xbd,
  0xd0, 0xa2, 0x91, 0x3d, 0xe8, 0x7f, 0x28, 0xbd, 0x4a, 0x10, 0x9b, 0xbd,
  0x64, 0x57, 0xb9, 0x3d, 0xe1, 0x10, 0x05, 0xbe, 0x1b, 0xea, 0x0c, 0xbd,
  0xe3, 0x44, 0xf2, 0xbc, 0x1c, 0xf4, 0xb4, 0x3d, 0xdf, 0xf5, 0x0a, 0x3d,
  0x7d, 0xc9, 0xe8, 0x3d, 0x67, 0x6b, 0x22, 0x3e, 0xbe, 0x32, 0x0e, 0xbc,
  0xf9, 0xec, 0x2c, 0x3d, 0xc7, 0x5a, 0x1c, 0x3e, 0xff, 0x6d, 0x61, 0x3d,
  0x6c, 0xa3, 0x23, 0x3e, 0x34, 0xab, 0xf6, 0x3d, 0xab, 0x0a, 0x4c, 0xbc,
  0xf2, 0x3e, 0xa0, 0xbd, 0xa3, 0x97, 0x04, 0xbd, 0x74, 0x11, 0xca, 0xbd,
  0x7b, 0x91, 0x17, 0xbe, 0xe6, 0xa7, 0x54, 0x3d, 0x52, 0x03, 0x6b, 0xbd,
  0x58, 0x2d, 0xd0, 0x3d, 0x71, 0x9f, 0x06, 0x3c, 0x47, 0x2b, 0x99, 0x3d,
  0xc8, 0x67, 0x3c, 0x3d, 0x8a, 0xf7, 0x1b, 0xbe, 0x23, 0x3c, 0x39, 0xbd,
  0x59, 0xd1, 0x8e, 0x3d, 0xba, 0xd4, 0xa8, 0xbb, 0x4b, 0x32, 0xf1, 0xbd,
  0x77, 0xac, 0xa1, 0xbc, 0x40, 0x55, 0x61, 0x3d, 0xd0, 0x45, 0x7c, 0xb8,
  0x41, 0x09, 0x0a, 0x3e, 0x1f, 0xed, 0x80, 0x3d, 0x10, 0x9a, 0x95, 0xbd,
  0x43, 0xcb, 0x85, 0x3d, 0x9a, 0x0e, 0x82, 0xbd, 0x96, 0x16, 0xf4, 0xbd,
  0x89, 0xc7, 0xf7, 0x3d, 0x86, 0x17, 0xa4, 0x3c, 0x1a, 0xb4, 0x5c, 0xbd,
  0xa9, 0x8c, 0xe2, 0x3d, 0x2c, 0x6f, 0xbc, 0x3d, 0x54, 0xaf, 0x0f, 0xbe,
  0xbf, 0x75, 0x31, 0xbe, 0x21, 0x3f, 0xc3, 0x3d, 0x16, 0xbe, 0xea, 0xbd,
  0x9c, 0xea, 0xc8, 0xbd, 0x28, 0xcc, 0x9b, 0xbd, 0x0f, 0x79, 0xef, 0x3d,
  0xf0, 0xb5, 0x09, 0x3e, 0xed, 0x3c, 0x12, 0x3e, 0x24, 0x00, 0xfe, 0x3d,
  0x13, 0xb9, 0x28, 0x3c, 0xea, 0xc5, 0x90, 0x3d, 0xed, 0xaf, 0x12, 0xbd,
  0x18, 0x43, 0xf8, 0xbd, 0xb3, 0x9b, 0x84, 0xbd, 0x50, 0x21, 0xb6, 0xbd,
  0x8e, 0xd0, 0xb5, 0x3d, 0xb6, 0x91, 0x1b, 0xbe, 0xb5, 0x8e, 0x1b, 0xbe,
  0xeb, 0x9e, 0xc8, 0xbc, 0xe9, 0xe3, 0x51, 0xbe, 0xaf, 0x0c, 0x88, 0xbd,
  0x15, 0xf3, 0x89, 0xbd, 0x0a, 0xdf, 0x00, 0xbe, 0xab, 0x6a, 0xa6, 0x3d,
  0xa1, 0x96, 0xe9, 0xbc, 0x61, 0xa5, 0x92, 0x3c, 0xef, 0x7a, 0xd7, 0xbd,
  0x47, 0xd8, 0xa4, 0xbd, 0x9b, 0x69, 0xff, 0x3d, 0x2d, 0x79, 0x35, 0x3c,
  0x33, 0xd7, 0x0f, 0xbe, 0x6e, 0x2f, 0xf5, 0xbd, 0x5d, 0x8f, 0xd3, 0x3d,
  0x66, 0xc0, 0x94, 0xbd, 0xa6, 0x6d, 0x06, 0xbe, 0x52, 0x9a, 0x9d, 0xbd,
  0x80, 0x77, 0x99, 0x3d, 0xef, 0x35, 0x32, 0xbe, 0x22, 0x11, 0xc1, 0xbc,
  0x5b, 0xac, 0x8d, 0x3c, 0xdb, 0x7f, 0x06, 0xbe, 0xbf, 0xe2, 0x71, 0xbd,
  0x8e, 0x49, 0xe1, 0xbd, 0xcf, 0x9e, 0x12, 0x3d, 0xdb, 0xec, 0xb1, 0x3d,
  0xf3, 0xd9, 0x03, 0x3e, 0x6f, 0xbe, 0x50, 0xbd, 0xf4, 0x83, 0x15, 0x3c,
  0xcc, 0xbe, 0xa0, 0xbc, 0xb1, 0x99, 0x19, 0x3e, 0x19, 0xfb, 0x93, 0xbc,
  0x8c, 0x35, 0x0f, 0x3e, 0xce, 0x34, 0xda, 0xba, 0xc0, 0x06, 0xe4, 0x3d,
  0xfb, 0x1c, 0x5d, 0xbd, 0x8e, 0xd4, 0xad, 0xbd, 0x86, 0x26, 0xd9, 0xba,
  0xec, 0x8f, 0x8d, 0xbd, 0x7d, 0x78, 0x2f, 0x39, 0xdc, 0x39, 0x1b, 0x3e,
  0x88, 0x52, 0x17, 0x3d, 0x83, 0x2b, 0x14, 0x3d, 0x60, 0x8d, 0x1c, 0x3e,
  0x66, 0xa6, 0xc6, 0xbd, 0x3a, 0xa7, 0x27, 0x3e, 0x6c, 0x34, 0xc6, 0x3b,
  0x8d, 0x0e, 0x33, 0xbd, 0xce, 0x8a, 0x6f, 0xba, 0x87, 0x08, 0x9a, 0x3d,
  0xc8, 0x0f, 0xdf, 0x3d, 0xcf, 0xa1, 0x14, 0x3e, 0x94, 0xca, 0x33, 0x3e,
  0xf1, 0xde, 0x26, 0x3b, 0x99, 0x3a, 0x2b, 0x3e, 0x67, 0xe7, 0x2d, 0x3e,
  0x66, 0x68, 0xc3, 0x3d, 0x4b, 0x1a, 0xdd, 0x3d, 0xf3, 0x6d, 0x8d, 0xbd,
  0xe4, 0xc7, 0x64, 0xbd, 0x0f, 0x77, 0x3a, 0x3e, 0xae, 0x26, 0xa6, 0x3d,
  0xf6, 0x3c, 0x8d, 0xbd, 0x67, 0xeb, 0x65, 0xbd, 0x79, 0xc4, 0x97, 0xbd,
  0x60, 0x65, 0xc8, 0xbd, 0xd8, 0x1e, 0x70, 0x3b, 0xdb, 0xb6, 0xe2, 0x3d,
  0x03, 0x0e, 0xc7, 0x3d, 0xb7, 0x12, 0xc3, 0xbd, 0xfd, 0xed, 0x94, 0xbd,
  0x1f, 0x26, 0x8e, 0x3c, 0xde, 0x9c, 0x42, 0x3e, 0xa0, 0x29, 0x03, 0x3e,
  0x0e, 0x84, 0x00, 0x3e, 0x0b, 0x0a, 0x4b, 0xbd, 0xef, 0xd1, 0xd1, 0x3d,
  0xdd, 0x61, 0x8b, 0x3d, 0x7a, 0x96, 0xdc, 0x3d, 0xdb, 0xe6, 0xc2, 0xbd,
  0xdf, 0x8f, 0x38, 0x3e, 0x6a, 0xa3, 0xd9, 0xbd, 0xa8, 0xe9, 0xae, 0x3d,
  0x4b, 0x54, 0xd4, 0x3d, 0x6a, 0x58, 0xbf, 0xbd, 0x38, 0x57, 0x68, 0x3d,
  0xea, 0x58, 0xdd, 0xbd, 0x0e, 0x24, 0xae, 0x3d, 0xea, 0x1e, 0x1e, 0x3e,
  0xc9, 0x03, 0x08, 0xbd, 0x6a, 0xb0, 0x64, 0x3d, 0x51, 0xdb, 0xfd, 0x3c,
  0x83, 0x56, 0xd6, 0xbc, 0xf3, 0x23, 0x4f, 0xbd, 0x5a, 0x7b, 0xdc, 0xbd,
  0x91, 0x1e, 0xcf, 0x3c, 0xeb, 0x07, 0xd4, 0xbd, 0x09, 0x7d, 0x01, 0xbe,
  0x5b, 0xa0, 0xc7, 0x3c, 0x9b, 0x0e, 0x59, 0xbd, 0xe5, 0x15, 0x8c, 0x3c,
  0xbb, 0x57, 0xed, 0xbd, 0x0a, 0x4c, 0xf2, 0xbd, 0xe2, 0xa9, 0x12, 0xbd,
  0x3f, 0x2d, 0x04, 0xbe, 0x0e, 0x14, 0x96, 0x3d, 0x9e, 0xb5, 0x87, 0xbd,
  0xc8, 0x57, 0xf2, 0xbd, 0x9f, 0x0e, 0xbe, 0x3c, 0xcd, 0x31, 0x8d, 0xbd,
  0xc7, 0x7c, 0xf6, 0xbd, 0x71, 0x5b, 0xd6, 0x3d, 0x48, 0xb6, 0x8f, 0x3d,
  0xf0, 0x66, 0xe3, 0x3c, 0x24, 0x55, 0xaa, 0x3d, 0x44, 0x0a, 0xf4, 0xbd,
  0x0f, 0x6a, 0x24, 0xbd, 0x5b, 0xe5, 0xe2, 0xbc, 0xf2, 0x39, 0x46, 0xbd,
  0xad, 0xd1, 0x00, 0xbe, 0x79, 0x34, 0x63, 0x3d, 0x98, 0x1c, 0xf1, 0x3c,
  0xc0, 0x48, 0xf8, 0x3d, 0xbc, 0xc1, 0x17, 0x3d, 0x26, 0x9f, 0x2d, 0x3d,
  0x91, 0xcf, 0x96, 0xbd, 0xd1, 0x6a, 0x93, 0xbd, 0xed, 0xf5, 0x6e, 0xbd,
  0xd5, 0x76, 0x42, 0xbd, 0x63, 0xab, 0x09, 0xbe, 0x76, 0xdd, 0x1c, 0x3d,
  0x5a, 0x55, 0xc9, 0xbd, 0x14, 0xad, 0xd0, 0x3c, 0xbc, 0xa2, 0x74, 0xbc,
  0x94, 0x56, 0x43, 0xbd, 0x4b, 0x65, 0x23, 0xbd, 0xa5, 0xe2, 0x8f, 0xbd,
  0x74, 0x38, 0x39, 0xbd, 0x5b, 0x50, 0x5e, 0xbc, 0x3b, 0x0e, 0xed, 0xbd,
  0x66, 0x1b, 0xde, 0xbc, 0x52, 0x30, 0xcd, 0xbd, 0x22, 0x90, 0x64, 0x3d,
  0x57, 0x7b, 0xa9, 0x3d, 0x8a, 0xd4, 0xdc, 0x3d, 0xe8, 0x60, 0xe7, 0x3c,
  0xc1, 0x07, 0x80, 0xbd, 0xc2, 0x53, 0xab, 0x3d, 0xff, 0x07, 0x23, 0xbd,
  0xf9, 0x39, 0x8d, 0x3d, 0x90, 0x5e, 0x9c, 0x3d, 0x6e, 0x17, 0x29, 0xbd,
  0x3f, 0x8a, 0xc9, 0x3c, 0x26, 0xb8, 0xaf, 0x3d, 0xa1, 0xb3, 0x11, 0x3c,
  0xca, 0x09, 0x00, 0xbd, 0x1f, 0xcc, 0xcf, 0xbd, 0x2a, 0xd6, 0x9e, 0xbd,
  0x51, 0x30, 0x93, 0x3d, 0x43, 0xed, 0x24, 0xbd, 0xf0, 0x3b, 0x4d, 0xbd,
  0xd8, 0x5e, 0xd8, 0x3d, 0xc8, 0xb9, 0x99, 0xbc, 0x03, 0x6d, 0xc4, 0xbd,
  0xd1, 0x49, 0xcb, 0xbd, 0xf7, 0x5e, 0xdc, 0x3d, 0xad, 0xe5, 0x25, 0xbd,
  0x2f, 0x03, 0xd4, 0x3d, 0x78, 0x9b, 0xa9, 0xbd, 0x38, 0x79, 0x83, 0x3d,
  0x87, 0x07, 0xf2, 0x3d, 0x86, 0x40, 0xa5, 0x3d, 0x23, 0x59, 0x9c, 0xbd,
  0x2c, 0x31, 0xb3, 0xbd, 0xcb, 0x8b, 0x30, 0x3c, 0x43, 0xfd, 0xde, 0x3d,
  0x19, 0xf2, 0xba, 0xbd, 0x25, 0x5f, 0x43, 0xbd, 0x92, 0x7b, 0x55, 0xbd,
  0x48, 0x1b, 0xf5, 0xbc, 0x34, 0xce, 0x1e, 0xbd, 0xd4, 0x95, 0xd8, 0x3d,
  0xd2, 0x4f, 0xca, 0x3d, 0x5d, 0xdd, 0x14, 0xbe, 0x66, 0xfe, 0xf9, 0x3b,
  0xae, 0x15, 0xd6, 0xbd, 0x37, 0x00, 0x04, 0xbd, 0x75, 0x21, 0x69, 0x3d,
  0xe9, 0x7d, 0x0b, 0xbe, 0x7e, 0x14, 0x9d, 0xbc, 0xa1, 0xa4, 0xbd, 0xbd,
  0x35, 0x51, 0x9d, 0xbd, 0x5d, 0x65, 0x80, 0x3c, 0xda, 0x53, 0x0c, 0xbe,
  0xe2, 0xfe, 0x0f, 0xbe, 0x40, 0x72, 0x05, 0xbe, 0x7e, 0x94, 0x7c, 0xbd,
  0x97, 0xc3, 0x47, 0x3c, 0x91, 0x4d, 0xd6, 0xbd, 0xbf, 0xcb, 0x48, 0x3c,
  0x7d, 0x65, 0x86, 0xbd, 0x6e, 0xd6, 0x4f, 0x3d, 0x1e, 0x09, 0x9f, 0x3d,
  0x00, 0x40, 0xa0, 0x3d, 0x36, 0x69, 0xd7, 0x3b, 0x0e, 0xbf, 0xf8, 0xbc,
  0x05, 0x97, 0x64, 0xbd, 0x5c, 0xbf, 0xcc, 0x3c, 0x11, 0x61, 0xa3, 0xbd,
  0xe1, 0x44, 0xa6, 0x3d, 0x38, 0x96, 0x41, 0x3d, 0x9c, 0xb9, 0xab, 0x3d,
  0x47, 0x15, 0x3a, 0xbd, 0xb2, 0x3a, 0x88, 0xbd, 0x55, 0xba, 0x29, 0x3e,
  0xc9, 0xbd, 0x12, 0x3e, 0x4a, 0xba, 0xa8, 0x3b, 0x5b, 0xea, 0x7d, 0x3d,
  0x1c, 0x1e, 0xb9, 0x3c, 0x46, 0xeb, 0x7b, 0xbc, 0xfd, 0x4e, 0x98, 0x3d,
  0xfc, 0xce, 0x4a, 0x3d, 0x0e, 0xbf, 0x04, 0xbd, 0x3a, 0xe2, 0xb7, 0x3d,
  0x36, 0x63, 0xe1, 0x3d, 0xe3, 0x20, 0xdb, 0x3d, 0x24, 0x04, 0x44, 0xbe,
  0xb2, 0x43, 0x8e, 0x3d, 0xd8, 0x59, 0xce, 0x3d, 0x91, 0xb7, 0xe8, 0xbd,
  0xf5, 0xf2, 0x32, 0x3b, 0xa3, 0xb2, 0x2c, 0x3d, 0x52, 0x4c, 0x67, 0x3d,
  0x71, 0x89, 0x90, 0xbd, 0x36, 0xb1, 0x2b, 0x3e, 0x70, 0x03, 0xe2, 0x3d,
  0x88, 0x86, 0x48, 0x3d, 0x99, 0xb1, 0xd7, 0x3d, 0x19, 0x6c, 0xe7, 0xbc,
  0xe8, 0x31, 0x86, 0x3d, 0x38, 0x5e, 0x19, 0x3e, 0x32, 0x19, 0x8b, 0x3d,
  0xf6, 0x55, 0xd7, 0xbd, 0x5b, 0xbb, 0x0c, 0xbe, 0xa2, 0xb6, 0x8c, 0x3c,
  0xe5, 0xd4, 0xe9, 0x3d, 0xe8, 0xd2, 0x20, 0xbd, 0x3f, 0x6a, 0x33, 0xbe,
  0xa8, 0xe0, 0x09, 0x3e, 0xfc, 0xce, 0x4b, 0xbd, 0xa8, 0x1e, 0xd0, 0x3b,
  0xef, 0x19, 0x21, 0x3e, 0x60, 0x54, 0xbb, 0xbd, 0x83, 0xc8, 0x7f, 0xbd,
  0x41, 0x02, 0x97, 0xbc, 0x31, 0xa6, 0x45, 0xbd, 0xa7, 0x1b, 0xb7, 0xbc,
  0x04, 0x30, 0x21, 0x3c, 0x05, 0x23, 0xb4, 0xbc, 0x87, 0xed, 0xb4, 0x3d,
  0x82, 0x4d, 0x0f, 0x3e, 0xf5, 0xd1, 0xe5, 0x3d, 0xeb, 0x56, 0x0d, 0xbe,
  0x85, 0x87, 0x0b, 0xbe, 0x5a, 0xd3, 0x14, 0x3e, 0x20, 0x4f, 0x80, 0x3c,
  0x60, 0x8d, 0x42, 0x3d, 0x4a, 0x5c, 0xbb, 0x3c, 0x48, 0x9f, 0xf2, 0x3d,
  0xb7, 0xc9, 0x04, 0xbe, 0x85, 0xfc, 0x1a, 0x3e, 0xf6, 0x3c, 0x39, 0x3e,
  0x57, 0x4b, 0x59, 0xbd, 0x3a, 0x8a, 0xed, 0x3d, 0xfa, 0x5e, 0x4b, 0x3d,
  0x83, 0xf0, 0x36, 0x3e, 0xe9, 0x9e, 0x0b, 0x3e, 0x67, 0x12, 0x20, 0x3e,
  0x63, 0x64, 0x0a, 0x3c, 0xd2, 0xde, 0xa7, 0x3c, 0xfa, 0x38, 0xc0, 0x3d,
  0x05, 0xe5, 0xc3, 0x3d, 0x71, 0xcf, 0x8d, 0xbc, 0x00, 0x1e, 0xab, 0x3d,
  0x10, 0x02, 0x36, 0x3e, 0x7e, 0x95, 0x66, 0x3e, 0x7c, 0xa1, 0x0a, 0xbe,
  0xe6, 0x7f, 0xbd, 0x3d, 0x5d, 0x68, 0x1a, 0x3e, 0x07, 0x2f, 0x03, 0x3d,
  0xa8, 0x69, 0x26, 0xbd, 0xbb, 0x28, 0x5a, 0x3e, 0x00, 0x1f, 0x89, 0x3d,
  0xc2, 0xb8, 0xd0, 0xbc, 0x58, 0x2b, 0x33, 0xbd, 0x41, 0x5c, 0xf9, 0x3d,
  0x36, 0x56, 0x8f, 0xbd, 0x45, 0xfb, 0xd6, 0x3d, 0x78, 0xb9, 0x1c, 0x3e,
  0xb3, 0xdb, 0xee, 0x3c, 0x79, 0xdc, 0x2b, 0x3e, 0x78, 0xf9, 0xf5, 0x3d,
  0x6b, 0x6c, 0xb1, 0x3d, 0xec, 0x1f, 0xc9, 0xbd, 0xe4, 0x1d, 0x43, 0x3d,
  0x43, 0x60, 0x33, 0x3c, 0x52, 0x8a, 0xe6, 0x3b, 0xaf, 0x4b, 0x31, 0xbd,
  0xd8, 0x43, 0x00, 0x3e, 0xfe, 0xee, 0x04, 0xbb, 0x01, 0x7f, 0xbd, 0xbd,
  0x25, 0x3d, 0xff, 0xbd, 0x86, 0xe6, 0x8d, 0x3d, 0x5b, 0x62, 0xa2, 0xbd,
  0x9b, 0xfc, 0x12, 0x3c, 0x5b, 0xc2, 0xfe, 0x3d, 0x56, 0x5b, 0x3c, 0xbd,
  0xd1, 0x70, 0xf3, 0x3d, 0xf2, 0x84, 0x0e, 0xbe, 0x62, 0x8e, 0x60, 0x3d,
  0x66, 0x69, 0xcb, 0x3d, 0x80, 0xce, 0xa6, 0xbd, 0x10, 0x72, 0xb8, 0x3d,
  0x8d, 0xfb, 0x3e, 0xbd, 0x33, 0x50, 0x8e, 0x3c, 0x9e, 0xcc, 0x72, 0x3b,
  0x8b, 0x1a, 0xbe, 0xbd, 0xa6, 0x8d, 0xcc, 0x3d, 0x17, 0xca, 0x5c, 0x3c,
  0xd1, 0xf5, 0xdc, 0x3d, 0x3a, 0xbf, 0xcb, 0xbd, 0xcb, 0x13, 0x96, 0xbd,
  0xec, 0x40, 0x14, 0xbd, 0x38, 0xe4, 0x9b, 0xbd, 0xc2, 0xde, 0x72, 0x3c,
  0xd7, 0x15, 0x83, 0x3d, 0xf8, 0x43, 0x4d, 0x3c, 0xc2, 0x89, 0x86, 0xbd,
  0xcb, 0x5d, 0xcd, 0xbd, 0x0a, 0xd9, 0xd6, 0x3d, 0x2e, 0x1f, 0x1b, 0xbd,
  0x3b, 0xcf, 0x95, 0x3c, 0xc4, 0x7d, 0x76, 0x3c, 0x40, 0x89, 0x03, 0xbe,
  0x08, 0x5a, 0x2c, 0xbd, 0xb2, 0x79, 0x4e, 0xbd, 0xf2, 0xf2, 0xd3, 0xbd,
  0xc7, 0x9d, 0x12, 0xbe, 0x73, 0xb7, 0xef, 0xbc, 0x06, 0x29, 0xa9, 0xbd,
  0x81, 0xf4, 0x24, 0xbc, 0x08, 0xb8, 0xa9, 0xbd, 0x66, 0x38, 0x7b, 0x3d,
  0x7f, 0x9e, 0xa3, 0x3c, 0xf4, 0xda, 0x13, 0x3e, 0xc5, 0x2b, 0xec, 0xbc,
  0x0b, 0x10, 0x1d, 0x3d, 0x82, 0x4e, 0x61, 0x3d, 0xae, 0xaa, 0xcd, 0xbd,
  0x11, 0x46, 0xaa, 0xbd, 0x6d, 0x7e, 0xd2, 0xbc, 0xd6, 0x5d, 0xd2, 0x3d,
  0xe4, 0x34, 0xa4, 0x3c, 0x72, 0x47, 0x20, 0x3d, 0x48, 0x84, 0xac, 0x3c,
  0x37, 0x2b, 0xfb, 0x3c, 0x82, 0xbe, 0xc3, 0xbd, 0x12, 0xc7, 0x51, 0x3d,
  0x68, 0xdd, 0x1e, 0x3d, 0x7f, 0x54, 0xac, 0xbd, 0x39, 0x7f, 0x11, 0x3e,
  0xf4, 0x9e, 0x53, 0xbd, 0x4c, 0xe1, 0xc4, 0xbc, 0xc1, 0x2d, 0x16, 0xbd,
  0xa7, 0xb5, 0x0c, 0xbe, 0xa5, 0x8e, 0x41, 0xbd, 0x66, 0x6b, 0x1c, 0xbd,
  0x03, 0xfb, 0x0d, 0x3b, 0xf1, 0x9a, 0xe7, 0xbd, 0xf1, 0xbc, 0xf5, 0x3c,
  0xae, 0x2a, 0xa6, 0x3d, 0x16, 0x02, 0x01, 0x3e, 0x0d, 0xed, 0xcf, 0xbd,
  0x9a, 0xe5, 0xd4, 0x3c, 0x52, 0xbe, 0xc5, 0x3c, 0x35, 0x14, 0xa5, 0x3d,
  0x95, 0xcb, 0x92, 0xbd, 0x08, 0x5f, 0x83, 0xbd, 0x5a, 0xa4, 0x94, 0x3d,
  0xfc, 0x41, 0x96, 0x3d, 0x65, 0x4a, 0xeb, 0x3c, 0x8c, 0xce, 0xe4, 0xbb,
  0x54, 0x17, 0xfd, 0x3d, 0xe2, 0x9e, 0xe5, 0x3d, 0x36, 0x68, 0x92, 0xbc,
  0x0f, 0xfd, 0x39, 0xbd, 0x98, 0x59, 0x2d, 0xbd, 0x75, 0x90, 0x9d, 0xbd,
  0x36, 0xf9, 0x70, 0xba, 0x21, 0x03, 0xe2, 0xbd, 0xf0, 0x83, 0xf1, 0x3c,
  0x72, 0xf2, 0x90, 0xbd, 0x61, 0x6f, 0x54, 0x3d, 0x18, 0x18, 0xf6, 0xbd,
  0x0b, 0x01, 0xca, 0xbd, 0xc0, 0xd1, 0x12, 0x3d, 0xb9, 0xf8, 0x9b, 0x3c,
  0x57, 0x75, 0x49, 0xbd, 0x5e, 0xd4, 0xff, 0xff, 0x10, 0x00, 0x00, 0x00,
  0x09, 0x00, 0x00, 0x00, 0x1c, 0x00, 0x00, 0x00, 0x3c, 0x00, 0x00, 0x00,
  0x04, 0x00, 0x00, 0x00, 0x08, 0x00, 0x00, 0x00, 0x05, 0x00, 0x00, 0x00,
  0x05, 0x00, 0x00, 0x00, 0x04, 0x00, 0x00, 0x00, 0x1f, 0x00, 0x00, 0x00,
  0x73, 0x65, 0x71, 0x75, 0x65, 0x6e, 0x74, 0x69, 0x61, 0x6c, 0x5f, 0x36,
  0x31, 0x2f, 0x63, 0x6f, 0x6e, 0x76, 0x32, 0x64, 0x5f, 0x32, 0x31, 0x38,
  0x2f, 0x43, 0x6f, 0x6e, 0x76, 0x32, 0x44, 0x00, 0xe8, 0xd3, 0xff, 0xff,
  0xc6, 0xd4, 0xff, 0xff, 0x04, 0x00, 0x00, 0x00, 0x20, 0x06, 0x00, 0x00,
  0xb0, 0x73, 0x1a, 0x3e, 0x87, 0x41, 0x8c, 0xbd, 0xc0, 0x95, 0x27, 0x3e,
  0xfa, 0x5a, 0x00, 0x3d, 0x14, 0xba, 0xa6, 0xbd, 0x5e, 0xbc, 0x0c, 0x3d,
  0x04, 0x69, 0x05, 0x3e, 0x56, 0xd7, 0xe8, 0x3c, 0x8d, 0x42, 0x9c, 0xbd,
  0x44, 0x3a, 0xda, 0xbd, 0x96, 0xc0, 0xa1, 0xbd, 0xcb, 0x4a, 0x0a, 0xbe,
  0x77, 0x3d, 0xb3, 0xbd, 0xb5, 0x3f, 0x40, 0xbe, 0x06, 0xd5, 0x42, 0x3d,
  0x65, 0x81, 0xf4, 0x3d, 0xef, 0x35, 0x72, 0xbc, 0x6d, 0xd4, 0x48, 0xbd,
  0x02, 0x64, 0xcc, 0x3c, 0x0c, 0xa7, 0x2d, 0x3e, 0xed, 0x95, 0xbd, 0x3d,
  0x57, 0x39, 0xe1, 0x3d, 0xde, 0x55, 0xdc, 0x3d, 0xc3, 0x2a, 0xc6, 0xbd,
  0xb1, 0x5e, 0x14, 0x3d, 0xdc, 0x2a, 0xf8, 0x3c, 0xef, 0x6c, 0x4c, 0xbe,
  0x11, 0xc4, 0xa9, 0x3d, 0x56, 0x25, 0xf6, 0x3d, 0xa4, 0xe7, 0xdb, 0xbd,
  0x4c, 0xa1, 0x1e, 0x3e, 0x24, 0x7b, 0xbb, 0x3d, 0xb1, 0x0d, 0xd3, 0xbd,
  0x3d, 0xcd, 0x36, 0x3e, 0xee, 0x79, 0xc3, 0xbd, 0x49, 0xe6, 0xcc, 0xbd,
  0x41, 0x26, 0x7a, 0x3d, 0x5c, 0xb6, 0x4c, 0x3d, 0x06, 0x69, 0xe2, 0xbd,
  0x7f, 0x97, 0xac, 0x3d, 0x10, 0xfc, 0x99, 0xbd, 0xeb, 0x7e, 0x21, 0x3c,
  0x84, 0x96, 0x0c, 0x3e, 0x9d, 0x34, 0x2a, 0x3e, 0xf5, 0xb6, 0xc1, 0x3d,
  0xa8, 0xb9, 0xc4, 0xbd, 0xe7, 0xb6, 0x27, 0x3e, 0x60, 0x0a, 0x0d, 0x3e,
  0x00, 0xec, 0x26, 0x3e, 0x0f, 0x54, 0x61, 0xbd, 0xad, 0xd4, 0xfb, 0x3d,
  0x35, 0x8b, 0x49, 0x3d, 0xea, 0x83, 0x94, 0xbd, 0xc7, 0x01, 0x8e, 0xbd,
  0xe1, 0x1e, 0xbe, 0xbd, 0x63, 0x08, 0x08, 0x3d, 0x73, 0xb5, 0xd1, 0x3d,
  0x2f, 0xfd, 0x22, 0x3c, 0x06, 0xda, 0x51, 0x3c, 0x64, 0xe4, 0xb2, 0x3d,
  0x66, 0x03, 0x00, 0xbd, 0xb5, 0x10, 0x3b, 0xbd, 0x8f, 0x5b, 0x06, 0xbd,
  0x65, 0x3e, 0x2e, 0x3b, 0xe4, 0xe1, 0xf0, 0x3c, 0x01, 0x81, 0xae, 0xbd,
  0x38, 0xae, 0x16, 0xbe, 0x19, 0xa1, 0xfb, 0x3c, 0xfa, 0x10, 0xa7, 0x3b,
  0x13, 0xfb, 0x86, 0xbd, 0x08, 0x6d, 0x12, 0x3e, 0x1b, 0x6a, 0x3d, 0x3e,
  0x40, 0xe6, 0x57, 0x3c, 0x18, 0x65, 0xb3, 0x3d, 0x4f, 0xd4, 0x70, 0xbc,
  0x06, 0x41, 0x35, 0x3e, 0x3f, 0xde, 0x04, 0x3e, 0xba, 0x71, 0x10, 0x3e,
  0x95, 0xa2, 0x9e, 0x3d, 0x87, 0x70, 0x14, 0xbd, 0x40, 0x85, 0x9e, 0xbc,
  0x50, 0x58, 0x9f, 0xba, 0x55, 0xb5, 0x3e, 0x3d, 0x77, 0xda, 0x06, 0x3e,
  0x2b, 0x8d, 0x22, 0x3d, 0x51, 0x5a, 0xca, 0x3c, 0xf3, 0xe4, 0xb3, 0xbb,
  0x0a, 0x0a, 0x05, 0xbd, 0xaa, 0xc8, 0xb9, 0x3d, 0x1b, 0x3b, 0xaa, 0x3d,
  0x76, 0x50, 0x23, 0x3e, 0xb4, 0xa8, 0x6c, 0xbd, 0x7b, 0xea, 0x8e, 0xbd,
  0xcd, 0xbe, 0x3c, 0x3e, 0x00, 0x50, 0x07, 0x3d, 0xdf, 0x95, 0x1c, 0xbc,
  0xd4, 0x6e, 0x12, 0xbe, 0x81, 0xbc, 0xee, 0x3d, 0x4e, 0x30, 0x05, 0x3e,
  0x36, 0xae, 0x15, 0xbd, 0x93, 0x0d, 0xa9, 0xbd, 0x9c, 0xc5, 0xcf, 0xbd,
  0x27, 0x72, 0x5b, 0x3d, 0x86, 0x17, 0x97, 0x3d, 0x58, 0x6a, 0x9f, 0x3d,
  0x02, 0x68, 0x6b, 0xbc, 0x61, 0x0a, 0xc3, 0xba, 0xbe, 0x3d, 0xe0, 0x3d,
  0xb0, 0xcf, 0xa3, 0xbc, 0x45, 0x53, 0xdb, 0x3d, 0x58, 0x05, 0x48, 0xbe,
  0x97, 0xd9, 0x14, 0xbc, 0x4d, 0x3e, 0x72, 0xbd, 0x0e, 0xd0, 0xae, 0x3d,
  0x76, 0xa4, 0x0b, 0xbe, 0x5a, 0x22, 0xe9, 0x3c, 0xb1, 0x6d, 0xdd, 0xbd,
  0xcb, 0xc6, 0x0b, 0xbe, 0xee, 0xee, 0x25, 0x3d, 0x8b, 0x1c, 0x03, 0xbc,
  0xda, 0xc3, 0x88, 0x3d, 0x7b, 0xde, 0x4b, 0xba, 0xf9, 0xbe, 0x7a, 0x3c,
  0xc8, 0x27, 0xa3, 0x3d, 0xf4, 0xca, 0x2b, 0xbe, 0x6c, 0x22, 0xf1, 0xbd,
  0x77, 0xa6, 0x16, 0x3d, 0x31, 0x56, 0xc6, 0xbd, 0xe7, 0xa4, 0x92, 0x3d,
  0x8e, 0xaf, 0xd2, 0x3d, 0xa0, 0x0c, 0xbd, 0xbc, 0x72, 0x88, 0x18, 0xbe,
  0xbc, 0x26, 0x9f, 0x3d, 0xce, 0xec, 0xa8, 0xbd, 0x1b, 0x2d, 0xc0, 0xbd,
  0x55, 0x38, 0x0d, 0x3e, 0xbc, 0x48, 0x7d, 0x3c, 0x4a, 0xd1, 0xc7, 0x3d,
  0xf8, 0x28, 0x0b, 0xbe, 0xc5, 0x84, 0x91, 0xbd, 0x63, 0x1f, 0x62, 0xbc,
  0x9c, 0x46, 0xd6, 0xbd, 0xa5, 0xf9, 0x4e, 0x3c, 0x99, 0x92, 0xea, 0x3d,
  0xe1, 0x0c, 0x1a, 0x3d, 0x04, 0x03, 0xdc, 0xbd, 0x84, 0xa8, 0x3a, 0x3d,
  0x59, 0x1b, 0xbe, 0x3d, 0xa0, 0x04, 0x04, 0x3e, 0xed, 0xfe, 0x0e, 0xbd,
  0xb5, 0x48, 0xdf, 0xbd, 0x55, 0x42, 0x26, 0x3e, 0x44, 0x9e, 0x90, 0xbd,
  0xca, 0x33, 0x1e, 0xbd, 0x57, 0x8f, 0x21, 0x3e, 0x04, 0x7e, 0x8f, 0x3c,
  0x02, 0x98, 0x7b, 0x3d, 0xf6, 0x03, 0xfe, 0xbd, 0xe8, 0xaa, 0x15, 0x3c,
  0xb0, 0xb8, 0xca, 0xbd, 0x69, 0x81, 0x22, 0x3e, 0x48, 0xb4, 0xba, 0xbc,
  0x22, 0xdf, 0x7e, 0xbd, 0xe4, 0xd2, 0xae, 0x3d, 0x39, 0xb9, 0xe4, 0xbd,
  0x48, 0xbc, 0xcc, 0x3d, 0xcc, 0x71, 0xbd, 0xbd, 0x23, 0x18, 0x1b, 0x3d,
  0xd9, 0x19, 0xdb, 0x3d, 0x0e, 0xc4, 0xe0, 0xbd, 0xbd, 0xd3, 0xdf, 0x3d,
  0x98, 0x50, 0xed, 0xbc, 0x16, 0xe1, 0xf6, 0x3d, 0x48, 0x2c, 0x20, 0x3d,
  0x07, 0xaa, 0xc9, 0xbb, 0x18, 0x0e, 0x02, 0x3e, 0xb4, 0x06, 0xab, 0xbc,
  0xa1, 0xfd, 0xc6, 0x3d, 0xce, 0x4f, 0xbf, 0xbd, 0xed, 0xad, 0x0a, 0x3e,
  0x10, 0xcb, 0xe6, 0xbd, 0xcc, 0xb1, 0x85, 0x3d, 0x62, 0xe1, 0xd5, 0x3c,
  0x57, 0xba, 0x0b, 0xbd, 0x7a, 0x3a, 0x56, 0x3e, 0xed, 0xf0, 0x0f, 0xbd,
  0xc2, 0x01, 0x34, 0x3e, 0xee, 0xa4, 0x9f, 0xbc, 0x6c, 0xa1, 0x12, 0x3e,
  0x20, 0x54, 0xe2, 0x3d, 0xd0, 0x96, 0x2b, 0x3e, 0x03, 0x42, 0x9e, 0x3d,
  0xd0, 0x7c, 0xa2, 0xbd, 0xd1, 0x18, 0x6b, 0x3c, 0x71, 0xde, 0x67, 0xbd,
  0x23, 0x8a, 0x83, 0x3d, 0xb9, 0x8c, 0x97, 0xbd, 0x14, 0x39, 0x0a, 0x3d,
  0xbb, 0xd4, 0xa6, 0xbd, 0xee, 0x92, 0x2e, 0xbe, 0xb8, 0x30, 0x9a, 0xbc,
  0xf9, 0x5f, 0x5e, 0xbd, 0x26, 0x50, 0x7c, 0xbc, 0x3d, 0xe7, 0xf3, 0xbd,
  0x20, 0x95, 0x34, 0x3d, 0xd6, 0x5d, 0x94, 0xbd, 0xdc, 0x71, 0x51, 0x3e,
  0x64, 0xd1, 0xd0, 0x3d, 0xca, 0xf8, 0x2e, 0x3e, 0xa6, 0x42, 0x10, 0x3e,
  0xf2, 0x8e, 0xfc, 0xbd, 0xc4, 0x7d, 0x8d, 0xbd, 0x4d, 0x2e, 0xba, 0xbd,
  0xae, 0x2d, 0xb6, 0xbc, 0x43, 0x9a, 0xe6, 0x3d, 0x49, 0xb5, 0xa6, 0x3d,
  0x01, 0x07, 0x1d, 0x3e, 0xeb, 0xbb, 0x95, 0xbd, 0x9a, 0x03, 0x33, 0xbd,
  0x28, 0x44, 0xd2, 0x3d, 0xcb, 0x74, 0xb7, 0x39, 0x18, 0x88, 0x92, 0x3d,
  0x7e, 0x71, 0x2b, 0x3d, 0x88, 0x1e, 0x13, 0x3e, 0x3d, 0x58, 0xe4, 0xbb,
  0xf2, 0xb2, 0x9e, 0xbd, 0xf2, 0x9d, 0x9f, 0xbd, 0xb6, 0xd4, 0xc7, 0xbd,
  0x14, 0xc1, 0xa0, 0xbd, 0xff, 0xb1, 0x28, 0xbe, 0x89, 0xf4, 0x38, 0xbd,
  0x10, 0x3b, 0xbe, 0xbc, 0x47, 0x32, 0x3f, 0x3e, 0x97, 0xe6, 0xd1, 0xbd,
  0x6d, 0x19, 0x47, 0x3c, 0x1d, 0x9e, 0x6a, 0xbd, 0x3a, 0x4d, 0x8b, 0x3d,
  0x4f, 0xe9, 0x1b, 0x3e, 0xe0, 0x14, 0x62, 0x3a, 0x6c, 0x9d, 0x98, 0x3c,
  0x19, 0x0e, 0x8e, 0x3d, 0x42, 0xd3, 0x99, 0x3c, 0xbc, 0x9c, 0x20, 0x3e,
  0x54, 0x6f, 0xf9, 0x3d, 0x06, 0x77, 0x51, 0x3d, 0x0d, 0x66, 0xb8, 0x3d,
  0x40, 0x6f, 0x37, 0x3e, 0x52, 0x6b, 0xa9, 0x3d, 0x6d, 0x2a, 0xb1, 0x3d,
  0x3c, 0xee, 0xf6, 0x3d, 0x3b, 0x73, 0x8e, 0x3d, 0x4e, 0x00, 0x18, 0x3e,
  0xf0, 0xb5, 0x29, 0x3e, 0xbf, 0x47, 0xa0, 0xbd, 0xbb, 0x65, 0x09, 0x3e,
  0x5a, 0x54, 0xe4, 0x3c, 0x24, 0xf4, 0xef, 0xbc, 0xab, 0xb8, 0x06, 0xbe,
  0x7e, 0xec, 0x1c, 0x3d, 0x3d, 0x7f, 0x56, 0x3d, 0xfb, 0x88, 0xf6, 0x3d,
  0x44, 0x4f, 0xe3, 0xbc, 0x1c, 0x16, 0x7c, 0x3e, 0x07, 0x33, 0x2e, 0x3e,
  0xd8, 0xd6, 0x62, 0x3e, 0x96, 0xbc, 0xf5, 0x3d, 0xea, 0x88, 0xa2, 0xbd,
  0xb1, 0x34, 0x12, 0x3e, 0x4c, 0x11, 0x40, 0x3e, 0xe1, 0x08, 0x08, 0xbd,
  0xbf, 0x3b, 0xca, 0x3d, 0xc8, 0xf8, 0x92, 0x3d, 0x30, 0x5f, 0x0a, 0x3e,
  0x16, 0x47, 0xa9, 0x3c, 0x29, 0x18, 0x74, 0x3e, 0xc0, 0x0f, 0x51, 0xbd,
  0x7d, 0xe7, 0x53, 0x3e, 0xd2, 0x3b, 0xe1, 0xbb, 0x9d, 0x4e, 0xf3, 0x3d,
  0x82, 0x0b, 0x31, 0x3e, 0x7e, 0x29, 0xba, 0x3b, 0xb6, 0x3a, 0x84, 0xbd,
  0x1d, 0x54, 0x47, 0xbc, 0x7f, 0x61, 0x4a, 0x3e, 0x17, 0x0d, 0x39, 0x3e,
  0x64, 0x62, 0x5d, 0xbd, 0xd1, 0xd9, 0x74, 0x3d, 0x0d, 0xfe, 0x70, 0x3d,
  0xdd, 0x2f, 0x9c, 0x3c, 0x51, 0x74, 0xa1, 0x3a, 0xe7, 0x5f, 0x3b, 0x3c,
  0x22, 0x5e, 0x07, 0xbd, 0x4c, 0xfb, 0x35, 0x3e, 0xee, 0x04, 0x49, 0x3e,
  0xaf, 0xd3, 0x00, 0x3d, 0x1f, 0xf3, 0x00, 0xbe, 0x59, 0xf2, 0x89, 0x3c,
  0xb7, 0x94, 0x25, 0x3d, 0x6a, 0xe0, 0xf8, 0x3d, 0x2b, 0xb7, 0xde, 0x3c,
  0x70, 0xee, 0xcf, 0xbc, 0x14, 0xec, 0x0b, 0x3e, 0xcb, 0x0d, 0x9f, 0xbd,
  0xad, 0x8f, 0xc0, 0xbc, 0xac, 0x27, 0x9a, 0x3c, 0x28, 0x9c, 0x81, 0x3d,
  0x05, 0x57, 0x48, 0xbc, 0xc1, 0x88, 0xfd, 0x3d, 0x68, 0x69, 0x78, 0x3d,
  0xab, 0x29, 0x00, 0x3e, 0x09, 0x9d, 0x8d, 0xbd, 0x05, 0xf1, 0x74, 0x3a,
  0xc0, 0x16, 0x77, 0x3c, 0x52, 0x63, 0x5a, 0xbd, 0xbe, 0x24, 0x80, 0x3d,
  0xab, 0xd9, 0x98, 0xbd, 0xe0, 0xe6, 0x6b, 0x3c, 0xa7, 0x54, 0xbd, 0xbd,
  0xd2, 0xf0, 0xf0, 0x3d, 0xe4, 0xd3, 0xd5, 0x3d, 0xa2, 0xd5, 0x09, 0x3e,
  0x34, 0xd3, 0xe8, 0xbd, 0x91, 0x3e, 0x75, 0x3d, 0x91, 0xa1, 0x1d, 0x3d,
  0x99, 0x4f, 0x18, 0xbd, 0x20, 0xb8, 0x97, 0x3d, 0x82, 0x42, 0x4c, 0xbc,
  0x9e, 0x83, 0xbe, 0x3d, 0x05, 0xa1, 0x96, 0x3d, 0xd6, 0x52, 0xbd, 0x3c,
  0xb4, 0xc0, 0x5a, 0x3d, 0xbb, 0xad, 0x0d, 0xbd, 0xb2, 0x5e, 0x05, 0x3e,
  0xaf, 0x71, 0xb7, 0xbd, 0x34, 0x17, 0x53, 0xbd, 0xa6, 0xd8, 0xea, 0x3c,
  0x57, 0x8a, 0x8e, 0xbd, 0xc1, 0xfe, 0xcd, 0x3d, 0x5f, 0x7a, 0x6d, 0x3d,
  0x11, 0x58, 0x8d, 0xbd, 0x10, 0xb2, 0xd6, 0xbd, 0xe9, 0xbe, 0x0d, 0x3d,
  0x79, 0xd1, 0x7b, 0xbd, 0x2a, 0xce, 0x0b, 0xbb, 0x1f, 0x8b, 0xa3, 0x3d,
  0x21, 0x47, 0xa6, 0x3c, 0x87, 0xdb, 0x79, 0xbd, 0xd0, 0xfc, 0x3f, 0x3d,
  0xd6, 0xc7, 0xc8, 0x3d, 0x5e, 0xb0, 0xf9, 0x3d, 0x0f, 0x36, 0x9a, 0x3d,
  0x56, 0xf8, 0x44, 0x3e, 0x92, 0xa3, 0x15, 0x3e, 0xeb, 0xc3, 0x97, 0x3c,
  0x90, 0x0f, 0x9f, 0x3c, 0x33, 0x07, 0xa9, 0x3d, 0xaf, 0x95, 0x92, 0x3d,
  0x65, 0x79, 0x6a, 0x3d, 0x5e, 0x3d, 0xd1, 0xbd, 0xb3, 0xf4, 0x6f, 0xbd,
  0xde, 0x45, 0x3d, 0xba, 0xbf, 0x33, 0x88, 0xbb, 0x56, 0x01, 0xc9, 0x3d,
  0x26, 0xb2, 0xff, 0x3d, 0xb8, 0x9c, 0xfc, 0x3b, 0x03, 0x7f, 0xd4, 0x3d,
  0x13, 0x1c, 0x0f, 0xbc, 0x3d, 0x4b, 0x1b, 0xbd, 0x78, 0xd8, 0x0e, 0xbd,
  0x06, 0xa8, 0xdc, 0x3d, 0x59, 0x23, 0xde, 0x3d, 0x94, 0xdd, 0xc2, 0x3d,
  0x58, 0x11, 0x15, 0x3e, 0x63, 0x6d, 0x31, 0x3d, 0xc2, 0xa4, 0xc9, 0xbd,
  0x8a, 0x39, 0xb1, 0xbd, 0x07, 0xfd, 0x1a, 0x3d, 0xf1, 0x62, 0x0f, 0xbc,
  0xca, 0x67, 0xeb, 0x3d, 0x17, 0x50, 0x57, 0xbd, 0x2a, 0x85, 0x1e, 0x3e,
  0xb8, 0xd9, 0x60, 0xbc, 0x58, 0x0f, 0x9c, 0x3d, 0x95, 0xa9, 0xc6, 0x3c,
  0xf0, 0x50, 0x30, 0x3e, 0x7e, 0x5e, 0x1b, 0xbc, 0x24, 0xe5, 0x33, 0x3e,
  0xb8, 0xf0, 0xf3, 0x3d, 0xfe, 0x4a, 0x5e, 0x3d, 0xcd, 0xcd, 0xcd, 0xbd,
  0x76, 0x59, 0x01, 0x3e, 0x53, 0x37, 0x56, 0xbc, 0xda, 0xda, 0xff, 0xff,
  0x10, 0x00, 0x00, 0x00, 0x08, 0x00, 0x00, 0x00, 0x1c, 0x00, 0x00, 0x00,
  0x3c, 0x00, 0x00, 0x00, 0x04, 0x00, 0x00, 0x00, 0x04, 0x00, 0x00, 0x00,
  0x07, 0x00, 0x00, 0x00, 0x07, 0x00, 0x00, 0x00, 0x02, 0x00, 0x00, 0x00,
  0x1f, 0x00, 0x00, 0x00, 0x73, 0x65, 0x71, 0x75, 0x65, 0x6e, 0x74, 0x69,
  0x61, 0x6c, 0x5f, 0x36, 0x31, 0x2f, 0x63, 0x6f, 0x6e, 0x76, 0x32, 0x64,
  0x5f, 0x32, 0x31, 0x37, 0x2f, 0x43, 0x6f, 0x6e, 0x76, 0x32, 0x44, 0x00,
  0x64, 0xda, 0xff, 0xff, 0x42, 0xdb, 0xff, 0xff, 0x04, 0x00, 0x00, 0x00,
  0x88, 0x02, 0x00, 0x00, 0x82, 0xbb, 0x02, 0x3e, 0xc0, 0x95, 0x86, 0xbd,
  0x28, 0x9c, 0x2e, 0xbd, 0x98, 0x5b, 0x50, 0x3e, 0xbf, 0xce, 0x35, 0x3e,
  0xc2, 0x6a, 0x02, 0x3e, 0x64, 0x41, 0xab, 0xbb, 0x4b, 0x5b, 0x64, 0x3d,
  0x71, 0xdf, 0x3d, 0xbd, 0x09, 0x47, 0x9c, 0xbd, 0xed, 0x0d, 0x5f, 0xbd,
  0x12, 0x1d, 0x39, 0x3e, 0xa0, 0x5f, 0x2b, 0x3e, 0xca, 0x1c, 0x48, 0xbd,
  0xa8, 0xba, 0x60, 0x3e, 0x57, 0x2f, 0x75, 0x3c, 0x3d, 0x2d, 0xac, 0x3d,
  0x0b, 0xdd, 0x34, 0x3e, 0x90, 0x89, 0x9d, 0x3d, 0x49, 0x51, 0xbe, 0xbd,
  0x0a, 0x35, 0x37, 0x3d, 0xd2, 0x5c, 0x83, 0x3c, 0x3e, 0x20, 0x2c, 0x3e,
  0x9b, 0xb1, 0x06, 0x3e, 0xa6, 0x44, 0xd1, 0x3d, 0xca, 0x9e, 0x14, 0x3e,
  0x0b, 0xef, 0x4c, 0xbd, 0xc3, 0x14, 0xb3, 0x3d, 0x42, 0xfa, 0x42, 0x3e,
  0xf9, 0x65, 0x05, 0x3e, 0xf0, 0x1e, 0x4a, 0x3d, 0x34, 0xcb, 0x04, 0xbd,
  0x28, 0xe8, 0xb4, 0x3d, 0x6b, 0x2e, 0x23, 0x3e, 0x44, 0xd8, 0x0d, 0x3e,
  0x55, 0xce, 0x00, 0xbc, 0xd1, 0x29, 0x38, 0x3e, 0x34, 0x26, 0x32, 0x3e,
  0xd9, 0x7a, 0x94, 0xbd, 0x07, 0x1b, 0x3c, 0xbc, 0xd6, 0x93, 0x10, 0x3e,
  0x5d, 0x03, 0x15, 0x3d, 0xf7, 0x78, 0x16, 0x3e, 0x27, 0xa6, 0x83, 0x3c,
  0xb1, 0x99, 0xcf, 0xbc, 0x04, 0xd3, 0xb3, 0xbd, 0x92, 0x9d, 0xd2, 0x3c,
  0xb1, 0xc2, 0xae, 0xbd, 0xa2, 0xde, 0x2b, 0x3d, 0xf1, 0x57, 0x50, 0x3e,
  0x39, 0x07, 0x64, 0x3e, 0x11, 0x31, 0x9f, 0x3d, 0x72, 0x48, 0x34, 0x3d,
  0xf5, 0xb1, 0x1e, 0x3e, 0xc3, 0xa5, 0x06, 0x3e, 0x76, 0x74, 0x4a, 0xbd,
  0xf2, 0xe3, 0x5f, 0x3e, 0x50, 0xfc, 0x62, 0xbd, 0xbc, 0xcd, 0x21, 0xbd,
  0xd2, 0xd8, 0x5c, 0x3e, 0x30, 0x7a, 0x7f, 0x3e, 0x8e, 0x5d, 0x75, 0x3e,
  0x00, 0xef, 0xf3, 0xbb, 0x27, 0xb2, 0x27, 0x3e, 0x2f, 0xd2, 0x43, 0x3e,
  0x99, 0x7a, 0x3b, 0x3e, 0x8d, 0x5b, 0xc6, 0xbc, 0xeb, 0x86, 0x57, 0x3e,
  0x1e, 0x13, 0xc0, 0x3c, 0x78, 0x04, 0xc7, 0x3d, 0x66, 0x43, 0xb9, 0x3c,
  0x0c, 0x4e, 0x0d, 0x3e, 0xc8, 0x73, 0x86, 0xbd, 0x99, 0xfe, 0x60, 0x3e,
  0x3d, 0xcf, 0x33, 0x3e, 0xb9, 0x4d, 0x33, 0x3e, 0xed, 0x78, 0x60, 0x3e,
  0xfc, 0x7e, 0xef, 0x3d, 0xe8, 0x0e, 0x8c, 0x3c, 0xb1, 0x2f, 0x37, 0x3e,
  0x15, 0xd4, 0x59, 0x3e, 0x85, 0xc0, 0xbb, 0xbd, 0x59, 0x62, 0x86, 0x3d,
  0xdc, 0x44, 0x90, 0x3c, 0xc6, 0x77, 0xc9, 0x3d, 0xdd, 0xeb, 0x43, 0x3e,
  0xae, 0x0a, 0x8a, 0xbd, 0x32, 0xbf, 0xd7, 0x3d, 0x88, 0xcf, 0xc8, 0x3d,
  0x64, 0x3c, 0x0f, 0x3e, 0x34, 0x9b, 0xad, 0x3d, 0x97, 0xa7, 0xc2, 0x3c,
  0x0d, 0x9c, 0xf6, 0x3d, 0xa8, 0x3a, 0x0a, 0x3e, 0x20, 0x44, 0xbe, 0x3d,
  0x67, 0x9a, 0x49, 0xbd, 0xf9, 0x17, 0x82, 0xbd, 0x51, 0x95, 0xd6, 0xbd,
  0xa8, 0x71, 0x1b, 0x3d, 0xfa, 0x90, 0x69, 0x3d, 0x75, 0x5c, 0xe4, 0x3d,
  0xad, 0xc1, 0xe0, 0xbc, 0xf4, 0x7e, 0xaa, 0x3d, 0x2a, 0xd2, 0xca, 0x3d,
  0x0f, 0xcb, 0xb9, 0xbd, 0x10, 0x18, 0x31, 0x3e, 0xd0, 0xd2, 0xed, 0x3d,
  0x3d, 0x52, 0xd9, 0xbd, 0x28, 0x9a, 0xb7, 0x3d, 0xba, 0xdb, 0xb0, 0x3d,
  0x22, 0xc1, 0x15, 0x3e, 0x2b, 0x3d, 0x29, 0x3d, 0x62, 0xa2, 0xcd, 0xbd,
  0x30, 0x1a, 0xe9, 0xbd, 0x08, 0x4c, 0x33, 0x3c, 0xd0, 0xc5, 0x7e, 0xbd,
  0x49, 0x11, 0xf7, 0x3d, 0x51, 0x9d, 0xf7, 0x3d, 0xa3, 0x89, 0x2c, 0x3e,
  0xbb, 0x1f, 0x2d, 0x3e, 0xd6, 0x22, 0xdc, 0x3d, 0x36, 0xf2, 0x32, 0x3e,
  0xcc, 0x76, 0xc8, 0xbd, 0x97, 0x50, 0xd2, 0xbd, 0xf6, 0xdb, 0x91, 0xbc,
  0x97, 0x4f, 0x0e, 0xbe, 0xa3, 0xd3, 0x67, 0x3d, 0x89, 0x9e, 0x0f, 0x3e,
  0x9c, 0xa9, 0x3e, 0x3e, 0x38, 0xeb, 0x02, 0x3c, 0x93, 0x8c, 0x4b, 0x3c,
  0x99, 0x85, 0x36, 0x3e, 0x30, 0xff, 0x24, 0x3e, 0x75, 0xe9, 0xf3, 0x3c,
  0xbb, 0x82, 0x48, 0xbd, 0x0a, 0xbf, 0x3a, 0xbd, 0xe7, 0x5b, 0x75, 0xbd,
  0x14, 0x89, 0x5a, 0x3e, 0xcb, 0x84, 0x91, 0xbd, 0x77, 0x84, 0x55, 0x3e,
  0x44, 0xb4, 0x17, 0x3d, 0xa2, 0xa7, 0xd0, 0x3d, 0xa2, 0x44, 0x74, 0xbd,
  0xbc, 0xc7, 0x7f, 0xbc, 0x60, 0x46, 0x4a, 0x3e, 0xae, 0x86, 0x07, 0x3e,
  0x5a, 0x7b, 0x05, 0x3d, 0xa0, 0x29, 0x2d, 0x3e, 0x97, 0xed, 0x80, 0x3d,
  0x34, 0x84, 0x00, 0xbd, 0xd0, 0x5f, 0xad, 0xbd, 0x2e, 0x09, 0x55, 0xbd,
  0xf7, 0xa8, 0x29, 0xbd, 0x6a, 0xbc, 0xc2, 0xbc, 0x83, 0x0d, 0x63, 0x3e,
  0x0b, 0xf6, 0xb9, 0xbc, 0xea, 0xd4, 0xec, 0xba, 0x36, 0x3b, 0xc1, 0x3c,
  0x04, 0x0f, 0x1c, 0x3e, 0xea, 0x39, 0xc4, 0x3d, 0xb8, 0x72, 0x61, 0x3d,
  0xae, 0xc5, 0x1c, 0x3e, 0xbe, 0xdd, 0xff, 0xff, 0x10, 0x00, 0x00, 0x00,
  0x07, 0x00, 0x00, 0x00, 0x1c, 0x00, 0x00, 0x00, 0x3c, 0x00, 0x00, 0x00,
  0x04, 0x00, 0x00, 0x00, 0x02, 0x00, 0x00, 0x00, 0x09, 0x00, 0x00, 0x00,
  0x09, 0x00, 0x00, 0x00, 0x01, 0x00, 0x00, 0x00, 0x1f, 0x00, 0x00, 0x00,
  0x73, 0x65, 0x71, 0x75, 0x65, 0x6e, 0x74, 0x69, 0x61, 0x6c, 0x5f, 0x36,
  0x31, 0x2f, 0x63, 0x6f, 0x6e, 0x76, 0x32, 0x64, 0x5f, 0x32, 0x31, 0x36,
  0x2f, 0x43, 0x6f, 0x6e, 0x76, 0x32, 0x44, 0x00, 0x48, 0xdd, 0xff, 0xff,
  0x26, 0xde, 0xff, 0xff, 0x04, 0x00, 0x00, 0x00, 0x40, 0x00, 0x00, 0x00,
  0x76, 0x63, 0xc9, 0x3e, 0x6a, 0x38, 0x9e, 0x3e, 0x01, 0x81, 0xe3, 0xbe,
  0x72, 0xe6, 0x4b, 0x3c, 0x7a, 0x12, 0xe1, 0x3e, 0xd8, 0x9e, 0xe2, 0xbd,
  0x11, 0x69, 0x58, 0xbe, 0x95, 0xde, 0x04, 0x3f, 0x33, 0x90, 0x06, 0x3e,
  0xd5, 0xac, 0x11, 0xbf, 0x8a, 0x89, 0x15, 0x3f, 0x46, 0x17, 0x76, 0xbe,
  0xea, 0xc0, 0xd8, 0x3e, 0x80, 0x6f, 0xf9, 0x3e, 0x84, 0x03, 0xd8, 0xbe,
  0xb8, 0x4f, 0x1d, 0xbf, 0x5a, 0xde, 0xff, 0xff, 0x10, 0x00, 0x00, 0x00,
  0x06, 0x00, 0x00, 0x00, 0x14, 0x00, 0x00, 0x00, 0x34, 0x00, 0x00, 0x00,
  0x02, 0x00, 0x00, 0x00, 0x01, 0x00, 0x00, 0x00, 0x10, 0x00, 0x00, 0x00,
  0x1e, 0x00, 0x00, 0x00, 0x73, 0x65, 0x71, 0x75, 0x65, 0x6e, 0x74, 0x69,
  0x61, 0x6c, 0x5f, 0x36, 0x31, 0x2f, 0x64, 0x65, 0x6e, 0x73, 0x65, 0x5f,
  0x31, 0x32, 0x31, 0x2f, 0x4d, 0x61, 0x74, 0x4d, 0x75, 0x6c, 0x00, 0x00,
  0xdc, 0xdd, 0xff, 0xff, 0xba, 0xde, 0xff, 0xff, 0x04, 0x00, 0x00, 0x00,
  0x00, 0x20, 0x00, 0x00, 0xb0, 0xbd, 0x2f, 0x3d, 0x33, 0x24, 0x33, 0x3e,
  0xac, 0x8e, 0x1e, 0x3e, 0x04, 0x92, 0x69, 0xbe, 0x57, 0xd6, 0xd6, 0x3d,
  0xf0, 0x5a, 0x55, 0xbe, 0xef, 0x36, 0x37, 0x3d, 0xb0, 0xf0, 0xb3, 0x3d,
  0x05, 0xa2, 0xfe, 0xbd, 0x54, 0x33, 0x34, 0xbe, 0x62, 0xa5, 0x5d, 0xbe,
  0x31, 0x6d, 0xb6, 0xbd, 0xd1, 0x20, 0x31, 0xbd, 0x2c, 0x9a, 0x12, 0x3e,
  0x9c, 0x61, 0x30, 0x3e, 0xbf, 0xd5, 0x2a, 0xbe, 0x0e, 0x26, 0x00, 0x3e,
  0xce, 0xdf, 0x64, 0xbe, 0x15, 0x4a, 0x2f, 0x3d, 0x94, 0x1e, 0x3d, 0xbe,
  0xce, 0x3d, 0x67, 0xbd, 0x2c, 0x03, 0x12, 0x3e, 0xd9, 0xfa, 0x29, 0xbe,
  0xa1, 0x85, 0x1d, 0xbe, 0xb4, 0xe0, 0xdd, 0xbd, 0x50, 0x4b, 0x47, 0x3c,
  0x43, 0x43, 0x29, 0x3e, 0x4d, 0xf5, 0xad, 0xbd, 0x3f, 0x0f, 0x37, 0xbd,
  0xc6, 0x52, 0x2d, 0xbe, 0x31, 0x31, 0x9b, 0xbc, 0x89, 0xca, 0xc3, 0x3d,
  0x0e, 0x32, 0x41, 0xbe, 0xad, 0x5c, 0x32, 0x3b, 0xd3, 0x58, 0xe1, 0xbc,
  0x24, 0xed, 0x38, 0xbc, 0x2f, 0x36, 0x27, 0x3d, 0x13, 0x6a, 0xc8, 0x3c,
  0x1e, 0x4f, 0xbf, 0x3c, 0x30, 0x07, 0x23, 0x3d, 0x3b, 0x7e, 0x6d, 0xbd,
  0x08, 0xd5, 0x62, 0xbe, 0xa2, 0x4e, 0xe3, 0x3d, 0x37, 0x42, 0x34, 0xbd,
  0x8c, 0x7d, 0x96, 0xbd, 0x67, 0x75, 0x1f, 0xbe, 0x7f, 0x59, 0x5b, 0xbd,
  0x59, 0xaf, 0xad, 0xbd, 0x14, 0x0d, 0xf2, 0x3b, 0xfb, 0x6a, 0x23, 0x3e,
  0xea, 0x7a, 0x3a, 0xbe, 0xf8, 0xac, 0x45, 0xbd, 0x8e, 0x58, 0x11, 0xbe,
  0x9c, 0x1a, 0x3c, 0xbc, 0xba, 0x31, 0xab, 0xbd, 0x3b, 0x3a, 0xbc, 0xbc,
  0x2f, 0x90, 0x42, 0xbe, 0xfd, 0x48, 0x36, 0xbd, 0xb6, 0x7a, 0x3e, 0xbe,
  0x5c, 0x42, 0xc8, 0xbd, 0xec, 0xa3, 0xf6, 0x3d, 0xec, 0x04, 0x64, 0x3d,
  0xc2, 0xb9, 0x35, 0xbe, 0x49, 0x16, 0xc6, 0x3d, 0x01, 0xc5, 0xc0, 0xbd,
  0xac, 0xb8, 0x66, 0xbe, 0xa7, 0x25, 0x81, 0x3d, 0x34, 0x20, 0x40, 0xbe,
  0x5c, 0x20, 0xcd, 0xbd, 0xeb, 0x64, 0xa7, 0xbd, 0x65, 0x63, 0xe5, 0x3d,
  0x8d, 0x0b, 0x3b, 0xbd, 0xbb, 0x42, 0x35, 0xbe, 0xab, 0x18, 0x68, 0xbe,
  0xd8, 0x2e, 0x20, 0x3e, 0x6a, 0x62, 0x17, 0x3b, 0x37, 0x02, 0x31, 0x3e,
  0xa6, 0xf0, 0x18, 0xbe, 0x0e, 0xc5, 0x28, 0xbe, 0xb7, 0x42, 0xf7, 0xbd,
  0x07, 0x99, 0x13, 0xbd, 0xb2, 0xe0, 0x67, 0xbe, 0xc9, 0xaf, 0x34, 0x3e,
  0x6d, 0x74, 0xec, 0x3c, 0x4b, 0x23, 0x25, 0xbd, 0xfd, 0x65, 0x2c, 0x3e,
  0xd1, 0xfc, 0x3b, 0xbe, 0xb4, 0x0d, 0x11, 0x3e, 0x3e, 0x52, 0xc6, 0xbd,
  0x2d, 0x88, 0x2c, 0x3d, 0x4c, 0x8c, 0x6f, 0x3d, 0x2d, 0x10, 0x90, 0x3d,
  0x8e, 0xbc, 0x37, 0xbd, 0xe4, 0x4e, 0x37, 0x3d, 0x76, 0x33, 0xbd, 0xbc,
  0x24, 0xc8, 0x35, 0xbe, 0xa9, 0x3d, 0xc3, 0xbd, 0x6a, 0xd4, 0x98, 0xbc,
  0x08, 0x81, 0xcb, 0xbd, 0xa1, 0x49, 0x3e, 0x3e, 0xdf, 0x51, 0x25, 0xbe,
  0xce, 0xc1, 0x3b, 0x3e, 0x70, 0xf1, 0x04, 0xbe, 0x69, 0x9a, 0xcd, 0xbd,
  0x96, 0xdc, 0xd9, 0x3c, 0x0e, 0x16, 0x06, 0x3e, 0x69, 0x74, 0x19, 0xbd,
  0x83, 0xd8, 0xd8, 0x3d, 0xb3, 0x73, 0x16, 0xbe, 0xc6, 0x6f, 0x03, 0xbd,
  0x9f, 0x01, 0x18, 0xbe, 0x9d, 0x03, 0x80, 0xbd, 0x73, 0x0f, 0xfe, 0xbc,
  0x52, 0x23, 0x60, 0xbe, 0xd9, 0xce, 0x35, 0x3d, 0x7a, 0x7d, 0xec, 0xbd,
  0xe9, 0xed, 0x3e, 0xbe, 0x16, 0x8a, 0x4d, 0x3d, 0x3a, 0x14, 0xc2, 0xbc,
  0x39, 0x95, 0x59, 0x3c, 0xb0, 0xeb, 0x82, 0xbd, 0x10, 0x72, 0x4f, 0xbe,
  0xd8, 0xf4, 0x13, 0xbe, 0x4f, 0x8e, 0xb5, 0x3d, 0xb1, 0xf2, 0x65, 0xbe,
  0x3e, 0x2a, 0x29, 0xbe, 0xd7, 0xaf, 0xf1, 0x3d, 0xbe, 0xbd, 0x16, 0xbd,
  0x60, 0x24, 0x00, 0x3e, 0x3c, 0x68, 0x85, 0xbb, 0x25, 0xa0, 0x82, 0xba,
  0xea, 0x3c, 0xb4, 0xbe, 0x51, 0xa6, 0x2a, 0xbe, 0xb3, 0x2c, 0x28, 0xbe,
  0xfd, 0xfc, 0xe1, 0xbd, 0x3b, 0x99, 0x6d, 0x3d, 0xc5, 0x0e, 0x15, 0x3e,
  0xf1, 0xcf, 0x91, 0x3d, 0x9e, 0x3b, 0x8d, 0x3d, 0x0c, 0x84, 0xec, 0xbd,
  0xe3, 0x29, 0x5b, 0xbe, 0x8e, 0xdb, 0x33, 0xbe, 0x28, 0x0e, 0x3f, 0x3d,
  0x38, 0xa8, 0x98, 0xbd, 0x41, 0x54, 0x55, 0x3d, 0xcf, 0x12, 0x3b, 0x3e,
  0x75, 0xa9, 0x2b, 0x3e, 0x75, 0x75, 0x38, 0xbc, 0xf3, 0x6a, 0x7e, 0xbe,
  0xb2, 0x24, 0x30, 0x3e, 0xb6, 0xcc, 0x36, 0xbe, 0xab, 0x11, 0xb7, 0x3d,
  0xff, 0x2a, 0x51, 0xbe, 0xbc, 0x53, 0x08, 0xbe, 0x0a, 0xfc, 0x35, 0xbe,
  0xff, 0x08, 0xa4, 0x3d, 0x0d, 0x64, 0xee, 0x3b, 0x56, 0xc5, 0x0c, 0x3e,
  0x90, 0xb9, 0x73, 0x3d, 0xd7, 0x07, 0xcf, 0xbc, 0xa3, 0x8e, 0xf7, 0x3c,
  0x8b, 0x69, 0xad, 0x3d, 0x07, 0x49, 0x1d, 0xbe, 0x68, 0xf1, 0x61, 0xbe,
  0x48, 0x78, 0x2a, 0x3e, 0x41, 0x9f, 0x94, 0x3d, 0x7e, 0x07, 0x83, 0x3d,
  0xab, 0x1b, 0xee, 0xbd, 0x70, 0x63, 0x41, 0x3c, 0x01, 0x83, 0x6b, 0x3d,
  0x2c, 0x7b, 0x5b, 0x3d, 0x93, 0x8a, 0x56, 0xbe, 0xa0, 0xf0, 0x02, 0x3d,
  0xf9, 0x1c, 0x2b, 0x3d, 0xd9, 0xab, 0x42, 0x3d, 0x75, 0x81, 0x87, 0x3d,
  0x48, 0xc6, 0xd4, 0x3d, 0xcf, 0xa2, 0x61, 0x3b, 0x11, 0x19, 0x04, 0xbe,
  0x75, 0x6d, 0xb6, 0xbc, 0xc3, 0xac, 0xfe, 0xb9, 0x18, 0xb5, 0x77, 0x3d,
  0x51, 0x99, 0x87, 0x3c, 0x4f, 0x93, 0x37, 0xbc, 0xd6, 0xd9, 0x0a, 0xbe,
  0x3e, 0x09, 0x69, 0xbd, 0x5a, 0x24, 0x13, 0xbd, 0xff, 0xc2, 0xb4, 0x3d,
  0xd5, 0x98, 0xd3, 0x3d, 0xcf, 0x11, 0xeb, 0xbd, 0xfd, 0x50, 0x86, 0xbd,
  0x60, 0x0c, 0x8f, 0xba, 0x76, 0xcd, 0xf0, 0x3c, 0x90, 0xd6, 0x7c, 0x3c,
  0xa7, 0x00, 0x96, 0x3b, 0x96, 0x88, 0x33, 0x3e, 0x73, 0x6f, 0x34, 0xbe,
  0x17, 0xb2, 0xaf, 0xbd, 0x66, 0x5a, 0x36, 0x3e, 0x9d, 0xaa, 0xd1, 0x3d,
  0x1f, 0x06, 0x19, 0x3e, 0x65, 0x50, 0x86, 0xbd, 0xdf, 0x10, 0xed, 0xbd,
  0x15, 0x25, 0x3a, 0x3e, 0x49, 0x26, 0x5f, 0x3e, 0x00, 0x52, 0x3a, 0xbe,
  0xc3, 0x13, 0x8b, 0xbd, 0xc3, 0x39, 0x15, 0xbd, 0xc7, 0x9e, 0x22, 0xbe,
  0x5d, 0xc7, 0x86, 0x3d, 0x64, 0x1d, 0x20, 0xbe, 0x4f, 0xef, 0xb5, 0x3c,
  0xbc, 0x57, 0x1d, 0x3e, 0xbd, 0xe1, 0x92, 0x3c, 0x03, 0xf3, 0x05, 0xbe,
  0x67, 0x45, 0x58, 0xbd, 0xd7, 0x5b, 0x57, 0x3d, 0x1e, 0x91, 0x35, 0x3e,
  0x52, 0x40, 0x26, 0xbe, 0x79, 0x2a, 0xd4, 0xbd, 0x83, 0x52, 0xb1, 0xbc,
  0x35, 0xed, 0x1d, 0xbe, 0x19, 0xa5, 0x12, 0x3e, 0x35, 0x5f, 0xce, 0x3d,
  0x20, 0x9e, 0x1a, 0xbd, 0xd9, 0x04, 0xf4, 0x39, 0xb8, 0x3a, 0x92, 0x3d,
  0xdc, 0x83, 0x10, 0x3e, 0xfd, 0xd0, 0xfc, 0xbd, 0xf2, 0x86, 0x3b, 0xbe,
  0xd8, 0x0b, 0xfe, 0xbd, 0x6e, 0xe8, 0xdc, 0x3d, 0x85, 0x64, 0x01, 0xbe,
  0xf1, 0x69, 0x5d, 0xbd, 0xd1, 0x49, 0xd2, 0xbd, 0x1e, 0xae, 0x59, 0x3e,
  0x39, 0x8f, 0xda, 0x3d, 0xd3, 0x7b, 0xdd, 0x3d, 0x11, 0x29, 0x89, 0x3d,
  0xb5, 0xbc, 0x2c, 0x3e, 0x2e, 0x71, 0xb5, 0xbd, 0x3f, 0xd2, 0xe7, 0x3d,
  0x01, 0x43, 0x54, 0x3e, 0x04, 0x74, 0x5c, 0x3e, 0xc9, 0x0f, 0xe6, 0xbd,
  0x78, 0x05, 0x5a, 0xbd, 0xc2, 0x94, 0x29, 0xbe, 0x7f, 0xb7, 0x92, 0x3d,
  0x9a, 0x99, 0x13, 0x3e, 0xf2, 0x51, 0x2b, 0xbd, 0x2e, 0x5b, 0x53, 0x3e,
  0xc5, 0x1c, 0xa2, 0xbd, 0x66, 0xb1, 0xf1, 0x3d, 0x63, 0x14, 0x3b, 0x3d,
  0x6b, 0x48, 0x47, 0xbe, 0x35, 0xed, 0x09, 0xbd, 0x73, 0xfa, 0xe6, 0xbd,
  0x40, 0x80, 0x67, 0x3e, 0x50, 0xba, 0xcd, 0xbd, 0x2d, 0xa4, 0x66, 0x3d,
  0x9e, 0xf5, 0x6a, 0x3e, 0xcc, 0xbe, 0x20, 0xbe, 0x21, 0xec, 0xe5, 0x3d,
  0x43, 0x7b, 0xe0, 0xbc, 0x7b, 0xd4, 0xf2, 0xbd, 0xe7, 0x66, 0x76, 0x3e,
  0x83, 0xf1, 0x26, 0xbe, 0x75, 0x4e, 0x33, 0x3e, 0x19, 0xa6, 0xaf, 0x3d,
  0x94, 0x75, 0xbe, 0x3a, 0x6d, 0x56, 0xeb, 0x3d, 0xab, 0x98, 0x37, 0xbd,
  0x69, 0xd1, 0x44, 0x3d, 0x26, 0x05, 0x66, 0x3d, 0x20, 0x4d, 0xbc, 0x3d,
  0x56, 0xf2, 0x14, 0x3e, 0x5a, 0x86, 0x84, 0x3d, 0x29, 0x17, 0xdf, 0x3d,
  0xeb, 0x9e, 0x1a, 0xbe, 0x5f, 0x01, 0x1f, 0x3e, 0xe2, 0x62, 0x89, 0x3d,
  0x3e, 0xc2, 0x6c, 0xbd, 0x41, 0x1b, 0xfe, 0xbd, 0x7c, 0xc0, 0xf4, 0xbd,
  0x27, 0x2c, 0xad, 0xbd, 0xff, 0x90, 0x23, 0x3e, 0xe4, 0xf4, 0xbc, 0xbd,
  0x8a, 0x98, 0x95, 0x3b, 0xc5, 0x42, 0x17, 0xbe, 0x22, 0x8d, 0x10, 0x3e,
  0x72, 0x9a, 0x59, 0xbc, 0xdf, 0x4f, 0x48, 0x3e, 0x52, 0xb4, 0x08, 0x3c,
  0xa8, 0x4d, 0xa3, 0x3c, 0xea, 0xc5, 0x3e, 0x3e, 0x3e, 0x37, 0xb0, 0xbd,
  0x88, 0x6a, 0x2e, 0x3d, 0xb6, 0x00, 0x6a, 0x3e, 0x38, 0xcc, 0x38, 0x3e,
  0x27, 0x34, 0x62, 0x3d, 0x06, 0xc4, 0x41, 0x3e, 0x7d, 0xe5, 0xa5, 0x3d,
  0x33, 0xe3, 0xe7, 0xbd, 0xb8, 0x42, 0x27, 0xbe, 0x7e, 0xb0, 0x5a, 0xbc,
  0x85, 0xb4, 0xa5, 0x3c, 0x03, 0x6a, 0xdb, 0xbd, 0x23, 0x26, 0x4a, 0xbe,
  0x99, 0xfc, 0xfc, 0x3d, 0x3d, 0x8c, 0x18, 0xbe, 0x9f, 0xed, 0x1a, 0x3e,
  0x05, 0xb8, 0x12, 0x3e, 0xae, 0xf7, 0xa1, 0x3d, 0xc4, 0x9f, 0xd7, 0xbb,
  0xd9, 0xfc, 0x11, 0xbe, 0x78, 0xfe, 0x8d, 0x3c, 0xb8, 0x9b, 0x2c, 0x3e,
  0xd8, 0x08, 0x08, 0xbe, 0x7b, 0xc5, 0x2a, 0x3d, 0x74, 0x2a, 0x7d, 0x3d,
  0xca, 0x0b, 0x84, 0x3d, 0x27, 0x33, 0x4a, 0x3e, 0xeb, 0x63, 0x09, 0xbe,
  0xda, 0x06, 0x13, 0x3e, 0x54, 0x16, 0xa6, 0x3d, 0x22, 0x36, 0xba, 0xbb,
  0x94, 0xa2, 0xf7, 0x3d, 0x62, 0x2e, 0xe7, 0xbb, 0x85, 0xb7, 0x11, 0xbe,
  0x37, 0x1b, 0x54, 0x3e, 0xb0, 0xc4, 0x28, 0xbe, 0x93, 0xa6, 0x12, 0x3e,
  0xf1, 0xe8, 0xd5, 0xbc, 0xc1, 0x2c, 0x40, 0xbe, 0x9e, 0xd3, 0x3b, 0xbc,
  0x75, 0x2a, 0x22, 0x3c, 0x85, 0xdc, 0x14, 0x3e, 0xeb, 0xc7, 0x12, 0xbd,
  0x3f, 0xc0, 0x0e, 0xbd, 0x97, 0xab, 0x0d, 0xbe, 0x97, 0x1f, 0xa4, 0x3d,
  0xd7, 0xef, 0xd9, 0x3b, 0x78, 0xdf, 0x65, 0x3e, 0x73, 0xdd, 0x13, 0xbd,
  0x93, 0x0d, 0xdf, 0xbd, 0xd1, 0xc5, 0x1a, 0xbc, 0xca, 0xb6, 0x2c, 0xbe,
  0xe7, 0xf9, 0xad, 0xbd, 0xc0, 0xdd, 0xfb, 0xbd, 0x69, 0xc1, 0x4f, 0xbe,
  0x3d, 0xa3, 0x42, 0x3e, 0x10, 0xb4, 0x86, 0x3c, 0xe8, 0xd8, 0x38, 0x3e,
  0xbd, 0x42, 0xcb, 0x3d, 0x05, 0x78, 0xb3, 0x3d, 0xae, 0x6f, 0x39, 0xbe,
  0x48, 0xbb, 0xab, 0xbd, 0x57, 0x45, 0x00, 0xbe, 0xc9, 0x26, 0x65, 0xbd,
  0xb1, 0xaa, 0xd1, 0xbc, 0x79, 0x72, 0xb3, 0xbc, 0x2b, 0x75, 0x2e, 0x3d,
  0x76, 0x3e, 0x8d, 0x3c, 0xee, 0x18, 0xa7, 0xbd, 0xf7, 0x5c, 0x04, 0xbe,
  0xc1, 0x12, 0x04, 0x3e, 0xa4, 0x03, 0x00, 0xbe, 0x65, 0x52, 0xbf, 0xbc,
  0x43, 0xe4, 0x1f, 0xbe, 0x3e, 0x49, 0xcd, 0x3d, 0x10, 0x2a, 0x24, 0xbe,
  0xa9, 0xbf, 0x18, 0x3e, 0x90, 0x0b, 0x83, 0xbb, 0x58, 0x53, 0xaf, 0x3d,
  0x82, 0x55, 0x9c, 0x3b, 0x8e, 0xca, 0x45, 0x3e, 0x74, 0x92, 0x62, 0x3e,
  0x83, 0x7c, 0x99, 0x3c, 0xe8, 0x79, 0x05, 0xbe, 0x91, 0xa1, 0xe5, 0xbd,
  0x6d, 0xaf, 0x7e, 0x3e, 0x6c, 0x0d, 0x39, 0xbe, 0x20, 0x87, 0xbd, 0xbd,
  0x54, 0x32, 0xd6, 0x3d, 0x5b, 0x82, 0x0a, 0xbe, 0x57, 0x54, 0x38, 0x3b,
  0x1d, 0x23, 0x81, 0xbd, 0x5b, 0xab, 0x3e, 0xbc, 0xf1, 0x88, 0xdc, 0x3d,
  0x37, 0x53, 0xb2, 0xbb, 0xb5, 0xb0, 0x06, 0x3e, 0xa1, 0xab, 0x87, 0x3d,
  0xda, 0xcf, 0x3d, 0x3e, 0x62, 0x24, 0x2b, 0x3e, 0xeb, 0x53, 0xb6, 0x3d,
  0xc4, 0x56, 0x09, 0x3e, 0xff, 0x64, 0xc5, 0x3d, 0x29, 0x39, 0x7f, 0xbb,
  0xde, 0xb2, 0x00, 0x3e, 0x14, 0x3d, 0x68, 0x39, 0x49, 0x22, 0x1c, 0x3e,
  0xbc, 0x86, 0xfd, 0xbd, 0x98, 0x34, 0xee, 0x3c, 0xdd, 0x33, 0x11, 0x3e,
  0x21, 0x84, 0xcd, 0xbd, 0x17, 0x32, 0xff, 0x3b, 0xf5, 0xb5, 0x4d, 0xbe,
  0x66, 0x3e, 0xa7, 0xbd, 0x45, 0x20, 0xac, 0x3d, 0xfb, 0x8c, 0xa8, 0x3d,
  0x86, 0x94, 0xd1, 0x3d, 0xfb, 0x91, 0x73, 0x3b, 0x50, 0xb6, 0x58, 0xbd,
  0x80, 0xdf, 0xb6, 0x3d, 0x2e, 0x54, 0x9e, 0x3d, 0x97, 0xe1, 0xe5, 0x3d,
  0x68, 0xbb, 0xd6, 0x3d, 0xe1, 0xb4, 0x39, 0x3e, 0x33, 0xa3, 0x19, 0x3e,
  0x28, 0xdf, 0xc4, 0xbc, 0x00, 0x38, 0x8b, 0xbd, 0x82, 0x0b, 0xda, 0x3d,
  0x35, 0xd4, 0x66, 0x3e, 0x47, 0xe1, 0x32, 0xbe, 0xa8, 0x38, 0x2b, 0x3d,
  0xee, 0x99, 0xde, 0xbd, 0xc1, 0x38, 0xe1, 0x3d, 0xd6, 0xed, 0x40, 0xbe,
  0x33, 0x85, 0xad, 0xbd, 0x15, 0x37, 0xfc, 0x3d, 0xb0, 0x5a, 0x11, 0xbe,
  0xa1, 0xe0, 0x36, 0x3e, 0x67, 0xc6, 0x68, 0xbe, 0x3e, 0x28, 0x02, 0x3e,
  0x23, 0x3d, 0x21, 0xbb, 0xf1, 0x0c, 0x14, 0xbe, 0xd6, 0x5e, 0xf0, 0xbb,
  0x1d, 0xaf, 0x6d, 0xbc, 0x0a, 0x9a, 0x1c, 0x3e, 0x43, 0x14, 0x47, 0x3e,
  0x79, 0xc4, 0x44, 0xbe, 0x9e, 0xb1, 0x07, 0x3e, 0xc1, 0x6a, 0xb4, 0x3c,
  0x01, 0x7f, 0x1e, 0x3e, 0xce, 0x06, 0xeb, 0xbd, 0x2a, 0x6e, 0x1b, 0xbe,
  0x73, 0x06, 0x8f, 0x3d, 0xdc, 0x28, 0xc0, 0x3c, 0xc2, 0x5e, 0xb6, 0x3d,
  0xd4, 0x39, 0x06, 0x3e, 0x4d, 0x69, 0x06, 0xbe, 0xfc, 0xf6, 0xf9, 0x3c,
  0xab, 0xdf, 0xdb, 0x3d, 0x06, 0xd6, 0xa5, 0xbd, 0x5b, 0x68, 0x08, 0xbe,
  0xce, 0xa9, 0x14, 0x3e, 0xa8, 0x5c, 0x31, 0xbe, 0x16, 0xb4, 0x46, 0xbe,
  0xa4, 0xc0, 0xd6, 0xbd, 0xa9, 0x0a, 0x4c, 0xbd, 0xa1, 0xde, 0x48, 0xbd,
  0xbe, 0xa8, 0xa7, 0xbd, 0x1f, 0xd8, 0x33, 0xbe, 0x4b, 0xba, 0x3a, 0xbe,
  0x04, 0x12, 0xd2, 0x3c, 0x5e, 0xe3, 0x37, 0xbe, 0x9a, 0x86, 0x3b, 0x3e,
  0x3a, 0x20, 0x6c, 0x3e, 0x14, 0xf2, 0xc4, 0xbd, 0x0f, 0xe0, 0x92, 0x3d,
  0x47, 0x33, 0x8f, 0xbc, 0xdb, 0x17, 0xf3, 0xbd, 0x55, 0x91, 0xec, 0xbb,
  0x61, 0x47, 0x1f, 0xbe, 0x61, 0xb2, 0x08, 0x3e, 0x64, 0x61, 0x32, 0x3d,
  0x7a, 0x7e, 0xad, 0xba, 0x4b, 0x6a, 0xba, 0xbd, 0x6e, 0x6d, 0x49, 0xbb,
  0x25, 0xcd, 0xaa, 0xbd, 0x92, 0x46, 0x39, 0xbe, 0x07, 0x48, 0x6e, 0x3d,
  0xaf, 0x36, 0x28, 0xbd, 0x01, 0x94, 0xa3, 0x3b, 0x81, 0xe5, 0x35, 0x3d,
  0x09, 0x48, 0x4b, 0xbe, 0xcc, 0x42, 0x09, 0xbd, 0xd1, 0x33, 0x09, 0xbe,
  0x7f, 0x68, 0x87, 0x3c, 0x79, 0xc7, 0xe8, 0xbd, 0x74, 0x84, 0xe5, 0xbc,
  0x89, 0x2f, 0x45, 0x3e, 0xfa, 0xa1, 0x5e, 0x3d, 0x57, 0xea, 0x05, 0xbe,
  0xa3, 0xca, 0xb9, 0x3d, 0x20, 0xb8, 0x2a, 0xbe, 0x99, 0x7e, 0xc8, 0xbd,
  0x34, 0xc9, 0x4c, 0xbe, 0x50, 0xd6, 0x3e, 0xbe, 0xdc, 0xfd, 0x5e, 0x3d,
  0x82, 0x5c, 0x28, 0x3e, 0xd9, 0xf4, 0x9a, 0x3c, 0x38, 0xf1, 0x14, 0xbd,
  0xfe, 0x7f, 0x2f, 0x3e, 0x26, 0x31, 0xbb, 0x3d, 0xe5, 0xf9, 0xc1, 0x3c,
  0x39, 0x98, 0x22, 0x3e, 0x8b, 0x39, 0x4c, 0x3d, 0x1f, 0xaa, 0xbc, 0x3d,
  0x09, 0xe4, 0xca, 0x3c, 0x2c, 0xfc, 0x0a, 0x3e, 0xa1, 0x01, 0xcf, 0x3d,
  0xfb, 0x90, 0xc1, 0xbc, 0xda, 0xe1, 0x87, 0xbd, 0xb9, 0x42, 0xae, 0xbd,
  0x29, 0xc9, 0x54, 0xbe, 0x86, 0xe2, 0xff, 0x3d, 0xc2, 0x24, 0xf2, 0x3d,
  0x59, 0x00, 0x46, 0x3e, 0xdd, 0x54, 0x29, 0xbe, 0x03, 0x37, 0x43, 0xbe,
  0x62, 0x0d, 0x5b, 0xbe, 0x34, 0x81, 0x5c, 0xbd, 0x39, 0x4b, 0x60, 0xbc,
  0xce, 0xda, 0x11, 0x3e, 0x2b, 0x13, 0x1f, 0xbe, 0xbb, 0xff, 0xfb, 0x3d,
  0xd9, 0x4a, 0x51, 0xbe, 0x2f, 0x39, 0x28, 0x3e, 0xfc, 0xf8, 0x5a, 0x3d,
  0xdd, 0xfc, 0xc1, 0x3d, 0xf8, 0xf9, 0x4b, 0x3c, 0xc1, 0x74, 0x29, 0xbe,
  0xc4, 0x31, 0x82, 0xbd, 0x2e, 0x97, 0xc8, 0x3d, 0x57, 0xb8, 0xe0, 0x3d,
  0x3c, 0xc4, 0x57, 0xbd, 0xcb, 0x75, 0x54, 0x3e, 0x96, 0xc0, 0x89, 0x3c,
  0x2d, 0xa0, 0x69, 0xbe, 0x37, 0x40, 0xf5, 0xbd, 0x6c, 0xff, 0xf0, 0x3d,
  0xe1, 0x5a, 0x1a, 0xbe, 0xdd, 0x4e, 0x45, 0xbe, 0xb3, 0xba, 0xde, 0x3d,
  0xd8, 0xb2, 0x49, 0x3e, 0x3d, 0xc5, 0x53, 0xbd, 0x0b, 0x2a, 0xf7, 0xbd,
  0x92, 0x48, 0x87, 0xbd, 0x4f, 0xb8, 0xcb, 0xbd, 0xcd, 0x7f, 0x94, 0x3d,
  0xb7, 0xeb, 0x3c, 0xbe, 0x1f, 0x0c, 0x17, 0xbe, 0x73, 0xed, 0x1b, 0xbd,
  0x64, 0xd1, 0x37, 0x3e, 0x16, 0xc2, 0xd7, 0x3d, 0x93, 0xca, 0x4f, 0xbd,
  0x83, 0x76, 0xe3, 0xbd, 0x17, 0x84, 0x1c, 0x3e, 0x71, 0x37, 0x23, 0x3e,
  0xc3, 0x73, 0x5e, 0xbe, 0xf0, 0xcc, 0x00, 0x3e, 0x91, 0xd3, 0x06, 0xbe,
  0xf6, 0x28, 0x7c, 0x3e, 0x90, 0xa5, 0x83, 0x3d, 0xd9, 0x9a, 0x3f, 0xbe,
  0x63, 0x52, 0xf6, 0xbd, 0xdf, 0xc4, 0x0b, 0xbe, 0x5c, 0x7f, 0x02, 0xbe,
  0x4b, 0xe8, 0x22, 0x3e, 0x26, 0xd9, 0x29, 0x3d, 0x2b, 0x03, 0xa9, 0xbd,
  0xa9, 0xff, 0x19, 0xbd, 0x7a, 0xe2, 0x96, 0xbd, 0x13, 0xcd, 0x4b, 0xbe,
  0xe4, 0xba, 0xf4, 0xbc, 0xb6, 0x52, 0x32, 0x3e, 0xb1, 0x20, 0x36, 0x3e,
  0x38, 0xb2, 0x2f, 0xbe, 0x74, 0x66, 0xf1, 0xbd, 0xc8, 0xbe, 0x71, 0x3d,
  0xa2, 0xe1, 0x9c, 0x3d, 0xb6, 0xf1, 0x40, 0x3e, 0x08, 0xe8, 0xdf, 0xbc,
  0x5d, 0x65, 0x24, 0x3d, 0x3a, 0x74, 0x9f, 0xbd, 0xa6, 0x3e, 0x53, 0xbc,
  0x7f, 0xb9, 0x44, 0xbd, 0x6e, 0xf1, 0xdd, 0x3d, 0x5f, 0x57, 0x38, 0x3e,
  0x75, 0xe2, 0x39, 0xbe, 0x27, 0x2a, 0x85, 0xbd, 0xf5, 0x14, 0xb0, 0x3d,
  0x72, 0x0b, 0x10, 0xbe, 0x0b, 0xd5, 0x4d, 0xbd, 0x7f, 0xfa, 0x12, 0xbd,
  0x1d, 0xb9, 0xff, 0xbd, 0xa9, 0xd9, 0xeb, 0x3d, 0x9c, 0x63, 0xa5, 0xbd,
  0x22, 0xb9, 0x82, 0x3d, 0x7a, 0x14, 0x1e, 0xbe, 0xda, 0xc0, 0x8c, 0xbd,
  0xcb, 0x2f, 0x31, 0x3e, 0xf8, 0xff, 0xff, 0x3d, 0x44, 0x53, 0x59, 0x3e,
  0xa9, 0x2e, 0x3d, 0xbd, 0x7b, 0x67, 0x6b, 0xbd, 0xf8, 0x45, 0x15, 0xbe,
  0x5e, 0x02, 0x67, 0xbe, 0xac, 0x40, 0x59, 0x3d, 0x47, 0xf0, 0x36, 0x3e,
  0x29, 0xf8, 0xb3, 0x3b, 0x17, 0x6d, 0x37, 0x3e, 0xc1, 0x4c, 0x2c, 0xbe,
  0x6d, 0x77, 0x0c, 0x3e, 0xce, 0x99, 0x3e, 0xbe, 0x97, 0xb8, 0xf3, 0xbd,
  0xef, 0x7b, 0xf9, 0x3c, 0x9d, 0xaf, 0x8e, 0x3c, 0x5e, 0x3c, 0x4f, 0x3e,
  0xa4, 0x99, 0xac, 0xbd, 0x01, 0x0c, 0x24, 0x3e, 0xe8, 0x5b, 0x65, 0xbe,
  0x9a, 0x04, 0x82, 0x3c, 0x6e, 0x6f, 0x9f, 0x3d, 0x4e, 0xef, 0x36, 0xbe,
  0x1d, 0x95, 0x1a, 0xbe, 0xbd, 0xa6, 0x55, 0x3d, 0x20, 0xa3, 0xca, 0x3c,
  0x1f, 0xba, 0xb4, 0x3c, 0x31, 0x6a, 0x07, 0x3c, 0x89, 0x9b, 0xb4, 0x3c,
  0xbf, 0xba, 0x99, 0x3c, 0xf7, 0x5a, 0x06, 0x3e, 0xee, 0xeb, 0xb5, 0x3d,
  0x14, 0xbd, 0x60, 0x3e, 0xdb, 0xe8, 0x42, 0xbe, 0x81, 0x7d, 0xb1, 0x3c,
  0x80, 0xd0, 0x7c, 0xbe, 0x0d, 0xa8, 0x48, 0xbe, 0x2b, 0x4e, 0x5f, 0x3d,
  0xda, 0x65, 0x98, 0x3d, 0x94, 0x24, 0xc7, 0xbd, 0xf2, 0xee, 0xa2, 0x3e,
  0x74, 0x6e, 0x51, 0xbe, 0x34, 0x25, 0xc4, 0x3c, 0x20, 0x6f, 0x4e, 0xbe,
  0x56, 0xfb, 0x10, 0xbe, 0xf0, 0x9a, 0x43, 0x3e, 0xef, 0x84, 0x5a, 0x3d,
  0xcd, 0xf4, 0xdc, 0x3d, 0x8b, 0x6d, 0x28, 0xbd, 0x4f, 0xfe, 0x1c, 0xbe,
  0x93, 0xd6, 0x95, 0xbc, 0x76, 0x8b, 0x9c, 0x3d, 0xbb, 0x2b, 0x4a, 0x3d,
  0x1d, 0x74, 0x28, 0xbe, 0x76, 0x9a, 0x02, 0xbc, 0x33, 0x25, 0xf5, 0x3d,
  0x01, 0x37, 0xe1, 0x3d, 0xf6, 0x99, 0xde, 0x3b, 0x2a, 0xe4, 0x26, 0x3d,
  0x9f, 0xfb, 0xee, 0x3c, 0xf5, 0x95, 0x20, 0x3e, 0xfa, 0xd0, 0x12, 0x3c,
  0x80, 0x18, 0x23, 0x3e, 0xf0, 0x30, 0x38, 0xbe, 0x76, 0xeb, 0x64, 0xbd,
  0xfd, 0xe4, 0x75, 0x3e, 0x6c, 0x43, 0x17, 0x3d, 0x48, 0x38, 0x55, 0xbc,
  0x67, 0x93, 0x33, 0xbd, 0x7f, 0xf2, 0xba, 0x3d, 0x41, 0x07, 0x06, 0x3e,
  0xf1, 0x0a, 0x0a, 0xbe, 0x7f, 0x09, 0x84, 0x3e, 0xf8, 0x3f, 0x01, 0x3e,
  0x79, 0x04, 0x16, 0x3a, 0x2f, 0xbd, 0x8e, 0xbc, 0x1a, 0xbb, 0x2f, 0x3c,
  0x9a, 0x59, 0x3b, 0x3e, 0x73, 0x33, 0x1d, 0xbe, 0x48, 0xbc, 0x0a, 0x3e,
  0xa0, 0x5a, 0x4d, 0xbe, 0xd7, 0xf0, 0x44, 0xbe, 0x45, 0x54, 0x30, 0xbe,
  0xad, 0x6c, 0xcc, 0x3d, 0x44, 0x79, 0xb2, 0x3d, 0xe1, 0xc5, 0xa2, 0x3d,
  0x6c, 0x55, 0x51, 0x3e, 0x5c, 0x5f, 0xe7, 0x3c, 0x1d, 0x8f, 0x1e, 0xbe,
  0xa7, 0x38, 0x44, 0x3e, 0x8e, 0xab, 0x0e, 0x3d, 0x6b, 0xad, 0xd3, 0xbd,
  0x1e, 0x3f, 0x1c, 0xbe, 0xef, 0x05, 0x64, 0xbc, 0xa9, 0xcc, 0xc9, 0x3d,
  0x29, 0x80, 0x36, 0xbd, 0xf0, 0x66, 0x74, 0x3e, 0x26, 0xd8, 0x06, 0x3e,
  0xd3, 0x97, 0x06, 0x3e, 0xc6, 0x1d, 0xaf, 0xbd, 0xef, 0xd5, 0x2a, 0xbe,
  0xeb, 0xdb, 0x45, 0xbe, 0x3d, 0x05, 0x93, 0xbd, 0x46, 0xb2, 0x3b, 0x3e,
  0x02, 0x77, 0x54, 0x3e, 0x2d, 0x57, 0x11, 0xbe, 0xfa, 0x40, 0x0b, 0xbe,
  0x3a, 0xe1, 0x3f, 0xbe, 0xae, 0xbf, 0x9e, 0x3c, 0xac, 0x1b, 0x45, 0x3d,
  0x5b, 0xa9, 0xae, 0xbd, 0x1a, 0x09, 0x01, 0x3e, 0x70, 0x98, 0x5b, 0xbc,
  0x9c, 0x22, 0x06, 0x3d, 0x7d, 0x71, 0x09, 0x3e, 0x98, 0x8a, 0x22, 0x3e,
  0x43, 0x52, 0x04, 0x3e, 0x6c, 0x9f, 0x0c, 0xbe, 0x4a, 0x36, 0x11, 0xbd,
  0xa3, 0x05, 0x38, 0xbb, 0x03, 0x0d, 0xe0, 0x3d, 0x22, 0x30, 0x80, 0x3d,
  0xeb, 0xee, 0x4a, 0x3e, 0x01, 0xe9, 0x1e, 0xbe, 0xad, 0xa2, 0x13, 0x3e,
  0x16, 0x80, 0x3c, 0x3c, 0xee, 0x52, 0x60, 0xbe, 0x9c, 0x5b, 0xc9, 0x3d,
  0xab, 0x3b, 0xcc, 0xbd, 0x83, 0x06, 0x5f, 0xbe, 0x9b, 0xd6, 0x50, 0xbe,
  0xa4, 0xfa, 0x15, 0xbe, 0x58, 0xec, 0x8f, 0xbd, 0x6b, 0xcf, 0x78, 0xbd,
  0x7a, 0xc2, 0xd2, 0x3c, 0x21, 0x81, 0x11, 0xbe, 0x0b, 0x73, 0x9f, 0xbd,
  0x7b, 0x1e, 0x61, 0xbe, 0x8f, 0xfa, 0x20, 0x3e, 0x63, 0x00, 0xe1, 0xbd,
  0x6d, 0x90, 0x2c, 0xbe, 0xa7, 0x48, 0x54, 0x3e, 0x47, 0x48, 0x3a, 0x3d,
  0x81, 0x78, 0x52, 0xbe, 0x6d, 0xd6, 0x28, 0xbe, 0x91, 0xd6, 0xb2, 0xbd,
  0x45, 0x2d, 0x0c, 0xbd, 0x8e, 0xe2, 0xb5, 0xbd, 0x7e, 0x91, 0x8e, 0xbb,
  0x95, 0xb2, 0x35, 0xbd, 0xa6, 0xec, 0x0b, 0xbe, 0xff, 0x0b, 0x0c, 0x3e,
  0x9a, 0x90, 0x8c, 0xbe, 0x8f, 0x77, 0xf1, 0x3d, 0x51, 0xba, 0x19, 0x3e,
  0xb8, 0x12, 0xa4, 0xbd, 0x41, 0xa7, 0x4a, 0x3d, 0x24, 0xd3, 0xc0, 0xbd,
  0xce, 0x72, 0x38, 0xbe, 0x1d, 0xe1, 0x94, 0x3d, 0x57, 0xf7, 0x49, 0xbe,
  0xb0, 0x0d, 0x1d, 0x3e, 0x25, 0x33, 0xc9, 0xbb, 0xb4, 0xb6, 0xb8, 0x3d,
  0x1d, 0xa6, 0xe6, 0x3d, 0x77, 0x04, 0x8f, 0xbd, 0x49, 0x8a, 0x26, 0xbe,
  0xfa, 0xa6, 0xb9, 0x3d, 0x13, 0x35, 0x00, 0x3d, 0x83, 0x98, 0xe9, 0xbd,
  0x4e, 0x77, 0x0d, 0x3e, 0xdb, 0xa5, 0x13, 0x3c, 0xef, 0x9c, 0x83, 0x3d,
  0x20, 0xb5, 0x36, 0xbe, 0xa8, 0x29, 0xfd, 0x3d, 0xaa, 0xc7, 0x5f, 0x3e,
  0x0e, 0x5b, 0x93, 0x3d, 0x0a, 0x3a, 0x4d, 0xbb, 0xc0, 0xe7, 0x3a, 0xbc,
  0xb8, 0x5a, 0x47, 0xbd, 0xb7, 0x9e, 0xdc, 0x3d, 0xd6, 0xc5, 0x29, 0xbd,
  0x26, 0xdd, 0x41, 0xbd, 0x08, 0xa3, 0xa7, 0x3d, 0xf1, 0xa0, 0xb2, 0x3d,
  0xfd, 0x29, 0xb4, 0xbd, 0x02, 0x70, 0xf1, 0x3d, 0xf8, 0x8d, 0x54, 0x3e,
  0xf9, 0x58, 0x22, 0x3e, 0x65, 0x1b, 0x54, 0x3d, 0xd4, 0x73, 0x3f, 0x3d,
  0x7d, 0xb6, 0xd9, 0x3d, 0x0d, 0x47, 0x1e, 0x3d, 0x6e, 0x87, 0xa3, 0x3e,
  0xaf, 0x36, 0x87, 0x3c, 0xbe, 0x94, 0xc2, 0xbd, 0xb8, 0x74, 0x08, 0x3e,
  0x5a, 0x7e, 0x4d, 0xbe, 0x42, 0x1e, 0xc6, 0x3c, 0x84, 0xfb, 0x4e, 0x3d,
  0xcf, 0x89, 0xda, 0x3d, 0xb4, 0x9c, 0x56, 0x3e, 0x4a, 0x36, 0xfe, 0x3d,
  0x9f, 0x0e, 0x42, 0xbd, 0x15, 0x4f, 0x13, 0x3d, 0xdc, 0xf2, 0xa6, 0x3c,
  0x67, 0xad, 0xdd, 0xbc, 0xac, 0x3e, 0x23, 0xbe, 0xc9, 0x39, 0x36, 0x3e,
  0x2c, 0x1b, 0x94, 0x3d, 0x3e, 0x96, 0x10, 0x3c, 0xcf, 0xb9, 0x93, 0x3d,
  0x12, 0xa6, 0x4f, 0xbe, 0x61, 0x51, 0x6e, 0x3d, 0x59, 0x6c, 0xee, 0xbc,
  0xf2, 0xb2, 0x04, 0x3e, 0x69, 0x85, 0xd3, 0xbc, 0xf0, 0x53, 0xcd, 0xbc,
  0x52, 0x7e, 0x2b, 0x3e, 0x8a, 0xbb, 0xdc, 0xbd, 0x14, 0xaf, 0xc9, 0x3d,
  0x42, 0xd7, 0x9c, 0x3d, 0x91, 0xed, 0x44, 0x3c, 0xd1, 0xad, 0xb7, 0xbc,
  0x77, 0xb5, 0x66, 0xbd, 0xd0, 0xa6, 0x81, 0x3d, 0xc2, 0x17, 0x2c, 0xbe,
  0xf6, 0x8e, 0xda, 0xbd, 0x0c, 0xa1, 0xf5, 0xbd, 0xaf, 0x2d, 0x50, 0x3e,
  0xac, 0x21, 0x68, 0xbd, 0x8d, 0x2e, 0x3a, 0x3e, 0x20, 0x66, 0x2f, 0x3e,
  0x00, 0x0f, 0xfa, 0xbc, 0x02, 0x60, 0xfa, 0xbb, 0x78, 0x7b, 0x53, 0xbe,
  0x19, 0x4b, 0xd2, 0x3d, 0xd6, 0xe2, 0x45, 0xbd, 0x61, 0x9c, 0x1d, 0xbe,
  0x72, 0x21, 0xa6, 0xbd, 0x21, 0xae, 0x16, 0x3e, 0xb4, 0xb4, 0x1b, 0x3d,
  0x04, 0x72, 0xf9, 0x3c, 0xac, 0xf1, 0x13, 0x3d, 0x2f, 0x71, 0x6c, 0x3d,
  0xa9, 0xda, 0x6e, 0x3e, 0xdb, 0x15, 0x70, 0x3c, 0xea, 0x35, 0x63, 0x3d,
  0xc1, 0x8b, 0x3a, 0xbc, 0x00, 0x60, 0x38, 0xbe, 0x25, 0x9d, 0xb6, 0x3d,
  0x02, 0x35, 0x35, 0x3e, 0x12, 0xa6, 0x86, 0xbc, 0x1d, 0xc7, 0x18, 0xbe,
  0xb1, 0xaf, 0x4d, 0xbd, 0x3a, 0xf3, 0xd4, 0xbd, 0xe8, 0x83, 0x6f, 0xbd,
  0x97, 0x37, 0xe5, 0xbd, 0x0d, 0xa3, 0xb4, 0xbd, 0x2e, 0x28, 0x40, 0x3e,
  0x59, 0xc4, 0x04, 0xbe, 0xd1, 0xd0, 0x63, 0x3d, 0x77, 0x4c, 0x09, 0x3d,
  0x1b, 0x46, 0x5b, 0x3e, 0x91, 0x1a, 0x04, 0x3e, 0xe2, 0x6e, 0x08, 0x3d,
  0x4a, 0x18, 0xb4, 0x3c, 0x0b, 0x8c, 0x05, 0xbe, 0x40, 0x84, 0xa7, 0xbc,
  0xd1, 0x02, 0xb9, 0xbd, 0x2d, 0x05, 0x22, 0x3e, 0x8e, 0x8c, 0xf1, 0x3d,
  0xf3, 0x6b, 0xc7, 0x3d, 0x29, 0xff, 0x7a, 0xbd, 0x42, 0x4c, 0xa3, 0x3d,
  0xec, 0x1d, 0xf3, 0xbd, 0x37, 0x9d, 0x51, 0x3c, 0xf7, 0x10, 0xce, 0x3d,
  0xef, 0xc6, 0x37, 0x3c, 0x67, 0x57, 0x44, 0x3d, 0xcb, 0xf1, 0x18, 0xbe,
  0x90, 0x6b, 0x24, 0xbe, 0xa3, 0x4b, 0x49, 0xbe, 0x24, 0xa8, 0x70, 0x3e,
  0x3f, 0x6d, 0xfd, 0x3d, 0x75, 0x4e, 0xba, 0x3d, 0x35, 0xa7, 0xac, 0x3b,
  0xe0, 0x26, 0x40, 0xbd, 0x96, 0xde, 0x8c, 0xbe, 0x43, 0xbd, 0x3e, 0x3e,
  0xcb, 0xef, 0xfa, 0x3b, 0xdb, 0x86, 0x23, 0x3e, 0x48, 0x04, 0x96, 0x3d,
  0x49, 0x24, 0xc3, 0x3d, 0x31, 0xcd, 0x60, 0xbe, 0xf9, 0x22, 0x84, 0xba,
  0x51, 0x4f, 0xee, 0xbd, 0x02, 0x35, 0xac, 0x3c, 0xea, 0x2d, 0x1e, 0x3e,
  0x20, 0xe7, 0x44, 0x3b, 0xf8, 0x5f, 0x42, 0x3e, 0x94, 0x4c, 0xc0, 0xbd,
  0xee, 0x92, 0x60, 0xbe, 0x8f, 0x76, 0x20, 0x3e, 0xc1, 0xea, 0xb7, 0xbd,
  0x77, 0x0e, 0x0d, 0x3d, 0x85, 0xc2, 0x3a, 0xbe, 0x9c, 0xf6, 0x3c, 0xbe,
  0x12, 0x1c, 0xa8, 0x3d, 0x76, 0x7b, 0x3f, 0xbd, 0xad, 0xd0, 0x0e, 0xbe,
  0x26, 0x00, 0x94, 0xbd, 0x55, 0x74, 0xea, 0x3d, 0xab, 0x8e, 0xe1, 0x3d,
  0x72, 0xb4, 0x9f, 0xbc, 0xb0, 0xcb, 0x91, 0xbd, 0x0b, 0x08, 0x5d, 0x3d,
  0x69, 0xba, 0x28, 0x3e, 0xd2, 0x10, 0x06, 0xbd, 0x38, 0x7a, 0xf4, 0xbd,
  0xa0, 0xbe, 0x5d, 0xbe, 0x45, 0x66, 0x1a, 0xbe, 0x7a, 0x1c, 0x41, 0xbe,
  0x6e, 0x48, 0xd0, 0xbd, 0x09, 0x4b, 0x42, 0xbd, 0x09, 0x83, 0x68, 0xbd,
  0xc1, 0xb0, 0x55, 0xbe, 0x46, 0xd0, 0x6a, 0xbd, 0x2c, 0x5a, 0xa6, 0x3d,
  0xfd, 0x21, 0x3a, 0xbd, 0xd6, 0xf8, 0xb6, 0xbc, 0x47, 0x88, 0x74, 0x3c,
  0x85, 0x71, 0x27, 0x3e, 0x0e, 0xeb, 0x85, 0xbd, 0x0d, 0x91, 0xcc, 0x3c,
  0xb8, 0xcf, 0x2a, 0x3e, 0x7f, 0xf3, 0x49, 0xbe, 0x03, 0x82, 0x6e, 0xbd,
  0x27, 0x08, 0xfd, 0xbc, 0x27, 0x1b, 0x57, 0xbe, 0x63, 0xf6, 0x04, 0x3e,
  0xe4, 0xff, 0x51, 0xbd, 0xa6, 0x6e, 0xc4, 0x3d, 0x71, 0xce, 0xcf, 0x3d,
  0xa6, 0xcb, 0x8b, 0x3b, 0x4d, 0xf1, 0x45, 0xbd, 0x97, 0x8a, 0x1e, 0x3d,
  0x7d, 0x47, 0xf2, 0x3d, 0x3f, 0x46, 0xf3, 0xbd, 0x15, 0x10, 0xa3, 0xbd,
  0x57, 0x6d, 0xa3, 0x3d, 0x19, 0x47, 0x8e, 0x3c, 0xe8, 0x80, 0x9f, 0xbd,
  0xba, 0x67, 0xe8, 0xbc, 0xcc, 0xde, 0xbc, 0xbd, 0xa8, 0xc1, 0xac, 0xbc,
  0xc9, 0x75, 0x01, 0xbe, 0x0e, 0x62, 0xee, 0x3d, 0x72, 0x29, 0x89, 0x3c,
  0xc0, 0x8a, 0x61, 0xbd, 0xdf, 0x75, 0x39, 0xbe, 0x19, 0x4f, 0x1e, 0x3e,
  0xd9, 0x04, 0x9c, 0x3d, 0xb1, 0xee, 0x8d, 0xbd, 0x78, 0x0f, 0x3d, 0xbe,
  0x2b, 0x9e, 0x16, 0x3e, 0x7f, 0x41, 0xf8, 0xbd, 0x07, 0xeb, 0x0a, 0xbd,
  0x8f, 0xe6, 0x47, 0x3e, 0xab, 0xb9, 0x8c, 0xbd, 0xcd, 0x18, 0xaa, 0x3c,
  0x72, 0x4f, 0x67, 0xbd, 0x9a, 0x4c, 0xa4, 0xbc, 0xd1, 0x5f, 0x07, 0x3c,
  0x7c, 0xde, 0x42, 0xbe, 0x48, 0xe9, 0xce, 0x3d, 0x6d, 0x65, 0x30, 0xbd,
  0x6e, 0xdd, 0xe6, 0x3b, 0xba, 0x1e, 0x43, 0xbe, 0x5b, 0x1a, 0x73, 0xbe,
  0xf9, 0xf9, 0xc7, 0x3d, 0x7f, 0x93, 0xbb, 0xbc, 0xc2, 0x3c, 0x62, 0x3d,
  0x81, 0x78, 0x3d, 0xbe, 0xf7, 0x18, 0x39, 0xbe, 0x55, 0x69, 0xea, 0x3d,
  0x13, 0x52, 0x2d, 0xbe, 0x7a, 0x70, 0xb0, 0xbd, 0x6e, 0xb5, 0x7b, 0xbd,
  0x90, 0x16, 0x7c, 0x3d, 0x99, 0x72, 0x86, 0x3d, 0x4b, 0xb9, 0x75, 0xbc,
  0x7f, 0x9f, 0x11, 0x3d, 0xc8, 0xe4, 0x5d, 0xbe, 0xe7, 0x08, 0x48, 0x3d,
  0x11, 0xb5, 0xb8, 0x3d, 0xed, 0xdc, 0x2a, 0x3e, 0x1b, 0x8b, 0xc8, 0x3c,
  0x25, 0x92, 0xe3, 0x3d, 0x6c, 0x57, 0x2a, 0x3e, 0x61, 0xa9, 0x15, 0xbd,
  0x6a, 0xe0, 0xfc, 0xbd, 0x4f, 0x24, 0x2a, 0x3e, 0xe2, 0x5f, 0x18, 0xbd,
  0x5d, 0x47, 0x6a, 0x3d, 0x60, 0xa6, 0x19, 0xbe, 0x56, 0x2a, 0xd0, 0x3d,
  0xd3, 0x69, 0xab, 0xbd, 0x82, 0x8a, 0x61, 0x3d, 0xaf, 0x16, 0x0c, 0x3e,
  0x34, 0x05, 0x80, 0xbd, 0xdc, 0x8e, 0x27, 0xbc, 0x4f, 0x03, 0x53, 0xbb,
  0x65, 0x36, 0x54, 0x3d, 0x27, 0xeb, 0x64, 0xbd, 0x3e, 0x56, 0xfa, 0xbc,
  0x53, 0xa6, 0xee, 0xbc, 0x2c, 0x74, 0x25, 0xbe, 0x41, 0x26, 0x22, 0xbe,
  0xac, 0x6d, 0x02, 0xbe, 0xbd, 0xe9, 0xa2, 0xbd, 0x0b, 0xf5, 0xe6, 0xbd,
  0x03, 0xcb, 0x83, 0xbd, 0x75, 0x0b, 0xe7, 0xbd, 0x7c, 0x97, 0xa6, 0x3c,
  0xc3, 0x67, 0x18, 0x3d, 0x73, 0x5b, 0xf7, 0xbd, 0x04, 0x09, 0x55, 0x3c,
  0x34, 0x2d, 0xe9, 0x3b, 0xb2, 0x74, 0x16, 0xbe, 0x59, 0xab, 0x47, 0xbe,
  0xf3, 0xcf, 0x14, 0x3e, 0xeb, 0x25, 0x4c, 0xbe, 0x1e, 0x53, 0xed, 0xbd,
  0x3f, 0x3d, 0x3f, 0xbc, 0xaa, 0x0a, 0x08, 0x3e, 0x18, 0x86, 0xe4, 0x3d,
  0x59, 0x37, 0x1e, 0xbe, 0x83, 0x43, 0x65, 0x3d, 0x05, 0x39, 0x19, 0xbe,
  0x80, 0xde, 0x19, 0xbe, 0x00, 0xec, 0x88, 0xbe, 0x47, 0x8c, 0x48, 0xbd,
  0xb7, 0x10, 0x16, 0xbd, 0x67, 0xdf, 0x2d, 0x3e, 0x9a, 0xa7, 0x71, 0xbd,
  0xca, 0xe4, 0xc0, 0x3b, 0xfa, 0xb9, 0xda, 0x3d, 0x70, 0x92, 0xda, 0x3c,
  0xc9, 0x2a, 0x8c, 0x3d, 0xd1, 0x02, 0x18, 0x3e, 0x6a, 0x94, 0xd6, 0x3d,
  0xe1, 0xdf, 0x96, 0x3d, 0x30, 0x70, 0x04, 0xbe, 0xb7, 0x14, 0xe2, 0xbd,
  0x36, 0x0c, 0xe2, 0x3d, 0x5a, 0x0c, 0x52, 0xbe, 0xdb, 0xd3, 0x10, 0xbe,
  0x12, 0xd5, 0x1c, 0x3d, 0x5d, 0xc7, 0x1a, 0x3e, 0xb0, 0xe5, 0x1a, 0xbe,
  0xa8, 0x97, 0x5e, 0xbe, 0x17, 0xd5, 0xa8, 0x3d, 0x59, 0x91, 0x7a, 0x3c,
  0x66, 0x6d, 0x21, 0x3e, 0xc5, 0xf9, 0xd3, 0xbd, 0x6e, 0x07, 0x66, 0x3d,
  0xb7, 0x43, 0x3e, 0x3d, 0xc7, 0x84, 0x2f, 0xbd, 0x1d, 0x9b, 0xe4, 0x3d,
  0x64, 0xe8, 0xa6, 0xbd, 0x29, 0x50, 0x28, 0x3e, 0x3a, 0x4c, 0x1d, 0x3e,
  0x43, 0xcd, 0x1a, 0xbc, 0x7f, 0x0e, 0x15, 0xbe, 0xf8, 0xa0, 0x95, 0x3d,
  0xbe, 0xed, 0x18, 0xbe, 0xc4, 0x64, 0x33, 0xbc, 0x3b, 0x00, 0xd1, 0xbd,
  0x49, 0x2e, 0x1a, 0xbe, 0x4f, 0x90, 0x10, 0x3e, 0x5a, 0x50, 0xbc, 0xbd,
  0xd5, 0x0c, 0xd7, 0x3c, 0x60, 0xc1, 0x51, 0xbe, 0x00, 0xe0, 0x53, 0xbe,
  0x42, 0x47, 0x98, 0x3d, 0x74, 0xa9, 0xe6, 0xbd, 0x1f, 0xd4, 0x38, 0xbd,
  0xbf, 0xcf, 0x7a, 0xbc, 0x5f, 0x86, 0x80, 0xbd, 0x1d, 0x01, 0x1e, 0x3d,
  0x12, 0x6c, 0x18, 0xbd, 0xad, 0xaa, 0x32, 0x3e, 0xa2, 0x9d, 0xe3, 0xbc,
  0x06, 0x9d, 0x54, 0x3d, 0xb8, 0x2d, 0x35, 0x3c, 0xdc, 0x3b, 0x2b, 0x3e,
  0x52, 0x85, 0xe3, 0x3d, 0xb9, 0xc0, 0xd1, 0xbd, 0x0d, 0x8f, 0x32, 0xbe,
  0x65, 0x00, 0x52, 0x3e, 0xc7, 0xe5, 0x4e, 0xbd, 0xcf, 0xe4, 0xea, 0x3d,
  0x96, 0x9b, 0xef, 0x3d, 0x33, 0xc6, 0x06, 0x3e, 0xad, 0xc7, 0xad, 0x3d,
  0x44, 0xbc, 0xd1, 0xbc, 0x24, 0xf9, 0x7d, 0x3d, 0xae, 0x1f, 0xd2, 0x3a,
  0x49, 0x45, 0x8c, 0x3c, 0x03, 0xb0, 0x29, 0xbe, 0xa7, 0x3f, 0xd2, 0xbd,
  0x3a, 0xcc, 0x3b, 0xbc, 0xe4, 0x3c, 0x0e, 0xbe, 0xf2, 0x9e, 0x0f, 0xbe,
  0x1b, 0xb6, 0x15, 0xbe, 0x94, 0x2a, 0xdd, 0xbd, 0x36, 0x73, 0xee, 0xbd,
  0x6e, 0x2f, 0xc4, 0xbd, 0x5e, 0x98, 0xa5, 0xbd, 0x14, 0xff, 0x1d, 0xbd,
  0x10, 0xbf, 0xa7, 0x3d, 0x07, 0xd2, 0xa8, 0xbc, 0xb2, 0x43, 0xca, 0x3d,
  0x85, 0x39, 0x19, 0x3e, 0xcc, 0x49, 0x7f, 0xbe, 0x68, 0xfc, 0xc0, 0x3b,
  0xd5, 0x23, 0x2a, 0x3d, 0x1f, 0x8d, 0xc0, 0x3d, 0xdd, 0x78, 0x2f, 0x3e,
  0x69, 0xb2, 0x44, 0x3e, 0xfe, 0x7e, 0x02, 0xbe, 0x26, 0x86, 0x7b, 0x3c,
  0x45, 0x13, 0x58, 0xbd, 0x3d, 0x8e, 0x0a, 0x3d, 0xc3, 0x7e, 0xdb, 0xbd,
  0x90, 0xb1, 0x16, 0x3e, 0xe8, 0xa5, 0xeb, 0x3d, 0xf4, 0x36, 0x15, 0x3d,
  0xa6, 0xd6, 0xe6, 0x3d, 0x56, 0xab, 0x54, 0x3e, 0x71, 0xf1, 0x24, 0xbe,
  0x7f, 0x8a, 0x23, 0xbe, 0xfd, 0xd1, 0xf2, 0xbd, 0x57, 0x81, 0x45, 0x3d,
  0x62, 0x68, 0x65, 0xbd, 0x6f, 0x66, 0x1e, 0x3e, 0xd5, 0x46, 0x67, 0xbd,
  0xbf, 0x73, 0x3a, 0xbe, 0xaa, 0x5d, 0x1b, 0x3d, 0xf1, 0x65, 0x01, 0xbe,
  0xf9, 0x38, 0x14, 0x3e, 0xd7, 0x29, 0x99, 0x3e, 0xce, 0x53, 0xe3, 0x3d,
  0x39, 0xb5, 0x22, 0x3e, 0x28, 0x6b, 0x93, 0xbd, 0x1f, 0x8f, 0x87, 0x3b,
  0x7f, 0xc0, 0xfd, 0xbc, 0x60, 0x39, 0x32, 0x3e, 0xab, 0xf4, 0x74, 0x3d,
  0xb7, 0xd2, 0x26, 0xbe, 0xcc, 0x1f, 0xfc, 0x3a, 0xda, 0x8d, 0x21, 0x3e,
  0x8b, 0x78, 0x28, 0xbe, 0xe4, 0xd4, 0x38, 0x3e, 0x6e, 0x8d, 0x26, 0x3e,
  0xaa, 0x99, 0x02, 0xbe, 0xca, 0x8c, 0xdc, 0xbd, 0x76, 0xb5, 0x8f, 0x3d,
  0xda, 0x3c, 0x8e, 0x3d, 0x91, 0x19, 0xbe, 0x3c, 0xd0, 0xc3, 0x4f, 0x3e,
  0x15, 0xd8, 0xe6, 0x3d, 0x64, 0x1e, 0x07, 0xbe, 0x9b, 0xc9, 0xa8, 0xbd,
  0x26, 0x2b, 0x26, 0x3e, 0x1c, 0xf9, 0x1b, 0x3e, 0x3d, 0x91, 0x8b, 0x3e,
  0x9d, 0x1a, 0x39, 0x3e, 0x62, 0x0b, 0x2c, 0xbe, 0x7f, 0x25, 0x13, 0x3d,
  0x25, 0x89, 0x95, 0xbd, 0x66, 0xe2, 0x95, 0xbd, 0x37, 0x0d, 0xa4, 0x3d,
  0xc6, 0xf4, 0x23, 0xbc, 0xab, 0xc2, 0x37, 0x3e, 0x27, 0xdd, 0x38, 0xbe,
  0xe8, 0x51, 0x76, 0xbe, 0x6c, 0x6c, 0xb7, 0xbd, 0x20, 0x63, 0x37, 0x3e,
  0x0d, 0x5e, 0x30, 0x3d, 0x4e, 0xb6, 0x21, 0x3e, 0x14, 0x8b, 0x37, 0xbe,
  0xde, 0x12, 0xb5, 0x3d, 0xac, 0x26, 0x19, 0xbe, 0xe1, 0xea, 0xba, 0xbb,
  0x07, 0x71, 0x35, 0x3e, 0x1d, 0xd6, 0xbb, 0x3d, 0x9b, 0x61, 0xb7, 0xbc,
  0x98, 0x9e, 0x1a, 0xbd, 0x87, 0x86, 0x81, 0xbd, 0x59, 0xd7, 0xdb, 0x3d,
  0x16, 0xe3, 0xc1, 0x3c, 0x43, 0x2d, 0x68, 0xbd, 0xbc, 0x69, 0xd4, 0xbd,
  0x40, 0x72, 0x50, 0xbe, 0x6f, 0xd0, 0x89, 0x3c, 0x85, 0x89, 0xa3, 0xbd,
  0xa6, 0x14, 0x16, 0xbd, 0x4a, 0x2b, 0x8c, 0xbd, 0x9c, 0x5c, 0x69, 0xbd,
  0xc1, 0x66, 0x24, 0x3e, 0xa1, 0xd6, 0xc3, 0xbd, 0x8e, 0xe7, 0x24, 0xbe,
  0xbc, 0x74, 0x83, 0xbd, 0x23, 0x28, 0x2c, 0xbe, 0x28, 0xa7, 0xf3, 0xbd,
  0x8e, 0x11, 0x57, 0xbe, 0x9b, 0xe0, 0x31, 0xbe, 0x5a, 0x14, 0x39, 0xbe,
  0x1d, 0x54, 0x8f, 0x3d, 0x68, 0x36, 0x97, 0xbd, 0x06, 0xef, 0xff, 0xbd,
  0x0f, 0x6d, 0x10, 0xbe, 0xb0, 0x99, 0xa5, 0xbd, 0x0b, 0xfb, 0xd5, 0xbd,
  0x39, 0x8a, 0x00, 0x3e, 0xd3, 0xb8, 0x56, 0x3c, 0xdb, 0xda, 0x28, 0xbe,
  0x4d, 0xd1, 0x53, 0x3e, 0xfe, 0x87, 0xed, 0x3d, 0xc5, 0x17, 0x16, 0x3d,
  0x75, 0x0b, 0x2b, 0xbd, 0xcd, 0xe2, 0x87, 0xbc, 0x04, 0x27, 0x32, 0xbe,
  0x5c, 0xce, 0x22, 0xbe, 0xad, 0xdf, 0xf2, 0x3d, 0x44, 0xaf, 0xaa, 0xbd,
  0xfa, 0xc6, 0xaf, 0x3b, 0xa2, 0x6d, 0x32, 0x3e, 0x10, 0x5b, 0xeb, 0xbd,
  0x08, 0x55, 0x38, 0xbe, 0x47, 0x25, 0x0b, 0x3d, 0xc0, 0x2d, 0xac, 0x3d,
  0x1f, 0x3c, 0x25, 0xbe, 0x25, 0xdd, 0x0f, 0x3e, 0x08, 0xab, 0x55, 0x3e,
  0xc7, 0x89, 0x0b, 0x3e, 0xad, 0x2e, 0xa9, 0x3c, 0x7a, 0xc1, 0x42, 0xbe,
  0x65, 0x26, 0x23, 0xbd, 0x27, 0x1a, 0x2b, 0x3e, 0xe4, 0x01, 0xf4, 0xbd,
  0x42, 0x6f, 0x16, 0xbe, 0x28, 0xbd, 0x22, 0x3d, 0x7c, 0x00, 0xbc, 0x3d,
  0x12, 0x10, 0xac, 0xbc, 0xee, 0x6e, 0xc9, 0x3d, 0xa0, 0x0c, 0xb5, 0x3d,
  0x00, 0x13, 0x09, 0x3e, 0x05, 0x2b, 0x4a, 0xbe, 0xdb, 0xcd, 0x8e, 0x3d,
  0x8a, 0x27, 0x01, 0x3e, 0xcd, 0x0d, 0xa3, 0x3d, 0xb2, 0x1b, 0x46, 0xbd,
  0x4c, 0x02, 0x4a, 0xbd, 0xaa, 0xd4, 0xbd, 0x3b, 0x62, 0xfd, 0x38, 0x3d,
  0xbf, 0xb7, 0x0e, 0xbe, 0xd4, 0x6a, 0x49, 0x3e, 0x33, 0xf6, 0x92, 0x3b,
  0xa7, 0xe6, 0x36, 0x3d, 0xf5, 0xf2, 0x83, 0xbe, 0x65, 0xa0, 0x32, 0x3c,
  0xd9, 0x7e, 0xb2, 0x3d, 0xf9, 0x46, 0x2e, 0x3e, 0xb2, 0x81, 0x21, 0x3e,
  0xa6, 0xe7, 0x19, 0xbe, 0x4b, 0xc3, 0x2d, 0x3e, 0xa8, 0xc1, 0x30, 0x3d,
  0x9d, 0x42, 0x86, 0xbe, 0x5d, 0xb2, 0x35, 0xbe, 0x30, 0xc1, 0xd8, 0x3d,
  0x49, 0x32, 0x99, 0x3d, 0xe4, 0x0a, 0x96, 0x3d, 0x1b, 0x2a, 0xa9, 0xbd,
  0xe9, 0xd2, 0xbd, 0x3d, 0xab, 0x44, 0xdb, 0x3c, 0x47, 0x90, 0x9c, 0xbd,
  0x7f, 0xb0, 0xbe, 0x3d, 0x55, 0x5e, 0x42, 0xbe, 0x66, 0xc1, 0x89, 0xbd,
  0xff, 0xd2, 0x4b, 0xbe, 0xc0, 0x61, 0x98, 0xbd, 0x0c, 0xda, 0x38, 0x3e,
  0xb4, 0x11, 0x21, 0xbe, 0xb5, 0x73, 0xaa, 0xbc, 0x61, 0x9b, 0xc7, 0xbd,
  0x9b, 0x42, 0xe9, 0xbd, 0x49, 0xce, 0xa0, 0xbd, 0xac, 0xf2, 0x0a, 0xbe,
  0x19, 0x7d, 0x2c, 0xbe, 0xad, 0xfc, 0x05, 0xbe, 0xa6, 0x1a, 0x91, 0xbc,
  0xb7, 0xad, 0x4e, 0xbd, 0x78, 0x73, 0x70, 0xbc, 0xfb, 0x14, 0x7f, 0xbd,
  0xd6, 0xfb, 0x82, 0x3d, 0x09, 0x6a, 0x52, 0xbe, 0xf3, 0x40, 0x89, 0x3d,
  0xfc, 0x74, 0xff, 0x3c, 0x7c, 0x9e, 0x81, 0x3c, 0x2e, 0xbd, 0x27, 0x3d,
  0x39, 0xaa, 0x76, 0xbd, 0xb0, 0x58, 0xb0, 0x3d, 0x0a, 0x0a, 0x69, 0x3e,
  0x3d, 0xd0, 0xd4, 0x3c, 0x35, 0xd1, 0x34, 0x3d, 0x34, 0xef, 0xe7, 0x3c,
  0x0f, 0x4d, 0xc8, 0x3d, 0x8e, 0x3e, 0x3e, 0x3e, 0xfe, 0x9c, 0x35, 0x3e,
  0x66, 0x69, 0x88, 0x3c, 0xd4, 0xca, 0xe4, 0xbd, 0x80, 0x4d, 0xc3, 0x3d,
  0x3d, 0x06, 0xde, 0x3d, 0x4d, 0xfa, 0x1f, 0x3e, 0x9f, 0xf3, 0xe4, 0x3c,
  0x6d, 0xe9, 0x50, 0x3e, 0x5c, 0x3c, 0xf3, 0xbd, 0xaf, 0x11, 0x18, 0x3e,
  0xad, 0x7d, 0x69, 0xbc, 0x8e, 0x5c, 0x0d, 0x3e, 0xba, 0x58, 0x8c, 0xbd,
  0x80, 0x17, 0xbf, 0x3d, 0x12, 0x3a, 0x44, 0x3c, 0x08, 0xe5, 0xd2, 0x3d,
  0x7f, 0xbb, 0xb9, 0xbd, 0xf0, 0xa1, 0x28, 0xbe, 0x8b, 0xc4, 0xf3, 0xbd,
  0xb6, 0xcf, 0xf5, 0xbb, 0x4f, 0x05, 0x53, 0x3d, 0x37, 0x65, 0xda, 0x3d,
  0x51, 0x09, 0x2f, 0x3e, 0x3f, 0xf5, 0x23, 0x3e, 0x1d, 0xb8, 0x98, 0x3c,
  0x56, 0x44, 0xf9, 0x3d, 0x3b, 0xf7, 0xd3, 0x3d, 0x4b, 0xfd, 0x1f, 0xbe,
  0x59, 0xea, 0x38, 0xbe, 0xac, 0x56, 0xfe, 0x3d, 0x87, 0x98, 0xfe, 0x3c,
  0xae, 0x53, 0x33, 0x3e, 0xe4, 0xc7, 0x36, 0x3d, 0xb9, 0x88, 0x97, 0x3d,
  0x12, 0x22, 0xdb, 0x3d, 0x29, 0xd7, 0x11, 0xbd, 0xbf, 0x81, 0xb7, 0xbc,
  0x07, 0xea, 0x43, 0xbe, 0xba, 0x4f, 0x46, 0x3b, 0x68, 0x76, 0x75, 0xbd,
  0x66, 0x25, 0xe8, 0x3d, 0xf7, 0x05, 0x2d, 0xbe, 0x33, 0x43, 0x0d, 0xbe,
  0x9e, 0xcc, 0xaa, 0x3c, 0x63, 0x0b, 0x19, 0xbe, 0x84, 0x47, 0x26, 0xbd,
  0xc7, 0x01, 0xdd, 0x3c, 0xbe, 0x9e, 0x95, 0x3d, 0x7f, 0xb2, 0x1f, 0x3e,
  0xda, 0x5d, 0x0a, 0x3e, 0x5d, 0x1e, 0x4a, 0xbe, 0xa4, 0x92, 0xfb, 0x3d,
  0xcf, 0x9f, 0x60, 0xbc, 0x30, 0x1e, 0x2f, 0xbe, 0x08, 0x1b, 0xf0, 0xbc,
  0x2d, 0xe2, 0x0c, 0xbe, 0xae, 0x32, 0x07, 0x3e, 0xa6, 0xc2, 0xbf, 0x3c,
  0xd7, 0x1f, 0x47, 0xbd, 0x97, 0x05, 0x3d, 0x3e, 0xfe, 0x4e, 0xc3, 0xbd,
  0x30, 0x70, 0x31, 0xbe, 0xda, 0x95, 0x9a, 0xbc, 0x28, 0xf0, 0x7a, 0x3d,
  0x80, 0x5e, 0xdf, 0xbd, 0xea, 0xc2, 0x04, 0xbd, 0xae, 0x5f, 0x42, 0xbe,
  0xfa, 0xb0, 0x9f, 0x3d, 0xde, 0xfa, 0x1a, 0x3e, 0xb3, 0x5a, 0x05, 0xbc,
  0x72, 0xfd, 0x00, 0xba, 0x01, 0x1d, 0x3b, 0x3e, 0x28, 0x5a, 0x84, 0xbc,
  0x11, 0x51, 0x8c, 0x3d, 0x6e, 0x92, 0xcd, 0x3d, 0x04, 0x93, 0x18, 0x3e,
  0x55, 0xf7, 0x5d, 0xbe, 0x57, 0x3d, 0xd4, 0xbd, 0x0e, 0xe4, 0xc9, 0xbd,
  0x69, 0xf3, 0x29, 0x3e, 0x36, 0x89, 0x25, 0xbe, 0xd2, 0x00, 0xaf, 0x3d,
  0xa8, 0x83, 0xee, 0x3d, 0xbf, 0xb4, 0x20, 0x3d, 0x5b, 0x7f, 0x38, 0x3e,
  0x54, 0xb4, 0xe3, 0xbc, 0x3c, 0xa6, 0x10, 0xbd, 0xf9, 0x4c, 0xa3, 0x3e,
  0x8d, 0x78, 0xf9, 0xbd, 0x88, 0x9e, 0x80, 0xbd, 0x04, 0xe6, 0x4e, 0x3e,
  0x80, 0xed, 0xbf, 0xbd, 0xef, 0x6a, 0x58, 0xbe, 0xc5, 0xa0, 0x2f, 0x3e,
  0x85, 0x15, 0x13, 0x3e, 0x81, 0x4c, 0xdd, 0x3d, 0xfd, 0xc3, 0x6d, 0x3d,
  0x86, 0x6f, 0x98, 0x3b, 0xc8, 0xc0, 0xdc, 0x3d, 0x02, 0xfb, 0xbf, 0xbd,
  0xb7, 0x39, 0xa8, 0xbd, 0xef, 0xa8, 0x0b, 0x3c, 0x05, 0x09, 0x89, 0xbd,
  0x96, 0xe3, 0xcd, 0x3b, 0xd5, 0x5a, 0x18, 0xbd, 0x22, 0x22, 0x6c, 0xbd,
  0x2f, 0x15, 0x04, 0xbe, 0x20, 0x1d, 0x8a, 0x3d, 0x66, 0x16, 0x17, 0x3e,
  0x12, 0x9c, 0x0d, 0xbe, 0x19, 0xe2, 0x19, 0x3e, 0xe5, 0x43, 0xd2, 0xbd,
  0x1c, 0xf7, 0x75, 0x3e, 0x46, 0x09, 0x5a, 0xbe, 0xc9, 0xa2, 0x9d, 0x3d,
  0x5c, 0x97, 0x7a, 0xbb, 0x65, 0x6c, 0x42, 0x3d, 0xb3, 0x94, 0x90, 0xbd,
  0x21, 0xaa, 0xed, 0x3c, 0xd0, 0xcd, 0x24, 0x3e, 0xa4, 0x72, 0x1b, 0x3e,
  0x30, 0xcc, 0x46, 0x3e, 0xa4, 0x35, 0xb6, 0xbc, 0xd0, 0xc9, 0x52, 0x3c,
  0x26, 0x93, 0x17, 0xbe, 0xaa, 0x0d, 0x03, 0xbe, 0xee, 0xa7, 0x33, 0xbe,
  0xea, 0xef, 0x1c, 0x3d, 0xe4, 0x02, 0xdd, 0x3c, 0x43, 0x8a, 0x3b, 0x3e,
  0x7a, 0x97, 0x3c, 0xbe, 0x8c, 0x76, 0x5e, 0xbd, 0x25, 0x50, 0x65, 0x3e,
  0x9e, 0xbb, 0x4a, 0x3d, 0x49, 0x2c, 0x91, 0xbd, 0x07, 0x13, 0xbb, 0x3d,
  0x7a, 0xb5, 0xb8, 0x3d, 0xd5, 0xf1, 0x3e, 0x3e, 0x34, 0x85, 0x6c, 0x3e,
  0x8b, 0xdd, 0x1a, 0x3e, 0xd4, 0xe7, 0xb0, 0xbc, 0xad, 0xeb, 0x12, 0xbe,
  0xf9, 0xf1, 0xed, 0xbc, 0x22, 0xa6, 0xe2, 0xbd, 0xa7, 0x3a, 0x73, 0xbd,
  0x4e, 0x1d, 0xd8, 0xbd, 0xfa, 0x66, 0x26, 0xbe, 0xd0, 0xd1, 0xa8, 0x3d,
  0x61, 0xe2, 0xa6, 0x3c, 0xaa, 0xef, 0xbc, 0xbc, 0x99, 0xc3, 0xc2, 0xbd,
  0xf7, 0xbc, 0x05, 0x3e, 0xec, 0xe6, 0x0c, 0x3e, 0xfc, 0x15, 0x7f, 0x3d,
  0xf2, 0xd7, 0x1f, 0xbd, 0xd6, 0x13, 0x1f, 0xbe, 0xfe, 0x59, 0x49, 0x3e,
  0xfa, 0xa5, 0x84, 0xbb, 0xe1, 0x06, 0x20, 0xbd, 0x1d, 0x47, 0x43, 0x3e,
  0x11, 0x03, 0x31, 0xbe, 0x30, 0x7a, 0xa2, 0xbc, 0x8c, 0xba, 0x9c, 0xbc,
  0x38, 0xa5, 0x0e, 0xbd, 0x64, 0x12, 0x6d, 0x3e, 0x8e, 0xfb, 0x57, 0xbd,
  0xc8, 0x15, 0xe6, 0xbd, 0xe9, 0xac, 0x45, 0xbe, 0x15, 0x45, 0x10, 0xbe,
  0x55, 0x3f, 0xe5, 0xbd, 0x9f, 0xa7, 0x0f, 0xbd, 0x9d, 0x58, 0x2a, 0x3e,
  0xfa, 0xb0, 0xbb, 0x3c, 0xd0, 0x49, 0x2d, 0xbe, 0x6a, 0x46, 0x3b, 0x3d,
  0x12, 0x80, 0x50, 0xbe, 0x7a, 0x36, 0xd3, 0x3d, 0x90, 0x15, 0x2d, 0xbe,
  0xea, 0x30, 0x37, 0x3e, 0xd6, 0x54, 0xa2, 0xbd, 0xaa, 0xd2, 0xe0, 0x3d,
  0x29, 0x18, 0x19, 0xbe, 0x07, 0xbe, 0x31, 0xbe, 0xd1, 0x1c, 0x0c, 0xbe,
  0xeb, 0x01, 0x89, 0xbd, 0xc9, 0x63, 0x90, 0xbd, 0x15, 0x58, 0xce, 0x3d,
  0x27, 0xd4, 0x33, 0x3e, 0x32, 0xc1, 0x29, 0x3d, 0x39, 0xc0, 0x4e, 0x3c,
  0x7f, 0xd4, 0x2b, 0x3e, 0xb9, 0xeb, 0xf1, 0x3d, 0xd1, 0xc9, 0xae, 0xbc,
  0x4c, 0x07, 0x59, 0x3d, 0x44, 0x91, 0x46, 0x3d, 0x73, 0xd6, 0x40, 0x3e,
  0xca, 0x7e, 0x07, 0x3e, 0xf0, 0x4c, 0xec, 0xbd, 0xb8, 0x54, 0x5e, 0xbd,
  0x93, 0x2e, 0x35, 0xbe, 0xf1, 0xeb, 0x25, 0x3e, 0x53, 0xeb, 0x40, 0xbe,
  0xfb, 0x82, 0x27, 0x3d, 0x56, 0xb9, 0x51, 0xbd, 0xd3, 0x9c, 0x46, 0x3e,
  0x57, 0xa8, 0x02, 0xbe, 0x3d, 0xdc, 0x52, 0xbc, 0x76, 0xb7, 0x73, 0xbe,
  0x92, 0xbc, 0x49, 0xbd, 0x54, 0x3f, 0x4f, 0x3c, 0xa9, 0x34, 0xe1, 0x3a,
  0x68, 0x39, 0x95, 0xbd, 0xf2, 0x08, 0x7f, 0x3d, 0x90, 0x5a, 0x0e, 0x3e,
  0x28, 0x3d, 0x9a, 0xbd, 0xc4, 0x4c, 0x1f, 0xbe, 0x10, 0x20, 0x86, 0x3c,
  0x1f, 0xee, 0xfe, 0x3c, 0x06, 0xf6, 0x9f, 0x3d, 0x7b, 0x01, 0x74, 0x3d,
  0xc0, 0x91, 0x10, 0x3e, 0x2b, 0x57, 0x8a, 0x3d, 0x28, 0xd1, 0x1e, 0x3e,
  0x79, 0xce, 0xd2, 0xba, 0x1e, 0xa3, 0x38, 0x3e, 0xb6, 0x2b, 0x03, 0x3e,
  0x7a, 0x4e, 0x4a, 0x3c, 0x8f, 0x96, 0xc4, 0xbd, 0x54, 0x19, 0x7f, 0x3d,
  0xaf, 0xe9, 0xff, 0x3d, 0x97, 0x49, 0xca, 0x3d, 0x78, 0x2a, 0xab, 0xbb,
  0xc3, 0x2d, 0xd9, 0x3d, 0xa4, 0x52, 0x4b, 0x3e, 0x48, 0x52, 0x9b, 0xbd,
  0x44, 0x35, 0xaf, 0xbc, 0xab, 0x11, 0x0d, 0x3d, 0xfb, 0xa1, 0x0c, 0x3e,
  0xe8, 0x52, 0x23, 0x3e, 0x57, 0x30, 0x36, 0xbe, 0xc1, 0xe2, 0x82, 0xbe,
  0x3f, 0x40, 0xa2, 0x3c, 0xb4, 0xf8, 0x2f, 0x3e, 0xb9, 0x87, 0xf5, 0xbd,
  0x46, 0x39, 0x15, 0x3e, 0x8d, 0x14, 0xde, 0x3b, 0x4b, 0x20, 0x80, 0x3d,
  0x76, 0xa8, 0x45, 0xbe, 0x7d, 0xea, 0x42, 0xbe, 0x44, 0x41, 0xc3, 0x3d,
  0x55, 0x54, 0x0d, 0x3e, 0x96, 0xba, 0x60, 0xbd, 0x2d, 0xd1, 0xd2, 0xbc,
  0xde, 0x25, 0x41, 0x3c, 0xfb, 0x43, 0x48, 0xbe, 0x22, 0x05, 0x5a, 0xbd,
  0xa3, 0x29, 0x27, 0xbe, 0x27, 0xa8, 0x29, 0xbe, 0x9c, 0x40, 0x9a, 0xbc,
  0x05, 0x62, 0x05, 0xbe, 0xc5, 0xca, 0xeb, 0x3d, 0x1d, 0xe3, 0x48, 0xbe,
  0x50, 0x00, 0x98, 0xbd, 0x0e, 0xf0, 0xbe, 0xbc, 0x5c, 0xd7, 0x99, 0xbc,
  0x02, 0xd1, 0xb4, 0x3a, 0x35, 0xc8, 0xd1, 0x3c, 0x57, 0xc3, 0xea, 0x3c,
  0x1e, 0x77, 0xf0, 0xbd, 0x2e, 0x20, 0x93, 0xbd, 0x7c, 0x3d, 0x26, 0xbe,
  0x5e, 0xaf, 0x06, 0xbe, 0xcc, 0x76, 0xbe, 0x3d, 0x47, 0x63, 0xe1, 0xbd,
  0x58, 0x8e, 0xbc, 0xbc, 0x7d, 0xf0, 0x4a, 0xbe, 0x4d, 0x3a, 0x59, 0x3b,
  0xfc, 0xad, 0x60, 0xbd, 0xd7, 0xae, 0xa5, 0x3d, 0xaf, 0x59, 0x2e, 0x3e,
  0x03, 0x91, 0xd1, 0x3c, 0x9c, 0x62, 0x34, 0x3c, 0xa9, 0x38, 0x23, 0xbd,
  0x00, 0xbc, 0x29, 0xbd, 0xf1, 0x61, 0xf8, 0x3b, 0xe8, 0xcf, 0x87, 0xbd,
  0x57, 0xb8, 0xb7, 0xbd, 0xc9, 0x23, 0x95, 0x3d, 0x65, 0x0b, 0x67, 0x3e,
  0x63, 0x7d, 0x0a, 0xbe, 0x5c, 0x7d, 0xe4, 0xbd, 0xa5, 0xcb, 0xa3, 0xb9,
  0xcf, 0x5f, 0x22, 0x3c, 0xf7, 0x11, 0x4b, 0xbe, 0xb8, 0x13, 0x18, 0xbd,
  0x44, 0xf3, 0x95, 0x3e, 0xc8, 0xdf, 0xc7, 0x3d, 0x82, 0x02, 0xe9, 0x3d,
  0x77, 0x5f, 0xc0, 0x3d, 0xe1, 0xb2, 0x91, 0x3d, 0xf3, 0x4f, 0x3e, 0xbe,
  0x0e, 0x82, 0x43, 0x3e, 0xc3, 0xbc, 0x02, 0x3e, 0xfe, 0x25, 0x39, 0x3e,
  0xee, 0x57, 0x3a, 0x3e, 0xfd, 0x03, 0xfd, 0x3d, 0x91, 0x5d, 0x96, 0xbc,
  0x91, 0x6e, 0x18, 0x3e, 0x00, 0x1e, 0x64, 0x3d, 0x61, 0x2e, 0xef, 0x3d,
  0xe1, 0xdd, 0xe5, 0xbd, 0x44, 0xc8, 0x34, 0x3e, 0xb0, 0xd5, 0x08, 0x3e,
  0xaf, 0x5a, 0xef, 0x3d, 0x87, 0x39, 0x0b, 0xbe, 0x25, 0x3a, 0x6b, 0xbd,
  0x4c, 0x56, 0xfc, 0xbd, 0xbe, 0xb3, 0x62, 0xbe, 0x8c, 0x54, 0x06, 0xbe,
  0xcb, 0x6d, 0x26, 0x3d, 0xc7, 0x8c, 0xd1, 0xbd, 0x1b, 0x8f, 0x5e, 0xbd,
  0xf0, 0x43, 0x0d, 0x3e, 0xfe, 0x65, 0x1f, 0xbe, 0xb5, 0x50, 0x8b, 0x3d,
  0x84, 0x9c, 0x07, 0xbe, 0x22, 0x65, 0xcf, 0xbd, 0x6f, 0xa2, 0xaf, 0x3d,
  0x22, 0xb1, 0xf7, 0xbd, 0xa9, 0xdd, 0x42, 0x3a, 0x3c, 0x70, 0xaf, 0xbd,
  0x7a, 0x0f, 0x3c, 0xbc, 0x29, 0x70, 0x21, 0xbe, 0xb4, 0xb1, 0x12, 0xbe,
  0x3b, 0xe2, 0x56, 0x3e, 0x8d, 0x79, 0x0d, 0xbb, 0x46, 0x42, 0xce, 0xbc,
  0x70, 0x68, 0x35, 0x3e, 0xdd, 0xc9, 0xaf, 0xbb, 0x34, 0x51, 0xcf, 0x3d,
  0xf0, 0xaf, 0x22, 0xbe, 0x67, 0x9c, 0x20, 0x3e, 0x6e, 0x67, 0xf9, 0xbd,
  0x1c, 0x23, 0x68, 0xbe, 0xce, 0xfd, 0x29, 0xbe, 0xa5, 0xaa, 0xc7, 0xbd,
  0x14, 0xa3, 0x60, 0x3e, 0xc5, 0x27, 0xdf, 0xbd, 0xaf, 0xa6, 0x08, 0xbe,
  0x7f, 0x27, 0xb6, 0xbd, 0x81, 0xe1, 0x61, 0x3d, 0xdf, 0xb4, 0xdc, 0xbd,
  0xb0, 0x46, 0x5a, 0xbe, 0xda, 0xe0, 0x44, 0xbd, 0x29, 0xa8, 0x62, 0x3c,
  0xc4, 0x68, 0xee, 0x3d, 0x79, 0x50, 0xf8, 0xbd, 0x13, 0x36, 0xc9, 0xbc,
  0x6e, 0x67, 0xc5, 0xbc, 0xb4, 0xbc, 0xf5, 0xbd, 0x94, 0x61, 0x8e, 0xbd,
  0xd8, 0x2a, 0x28, 0xbe, 0xf9, 0xfa, 0x9b, 0x3d, 0x55, 0x22, 0x0d, 0x3e,
  0x84, 0x01, 0xe8, 0xbd, 0xbf, 0xc2, 0x1f, 0xbe, 0x88, 0x6d, 0xb1, 0x3d,
  0x06, 0xd6, 0x0b, 0x3e, 0xff, 0x09, 0x04, 0xbe, 0x02, 0xca, 0x2e, 0xbe,
  0xed, 0xd9, 0x33, 0x3e, 0x30, 0x19, 0x91, 0x3c, 0xd5, 0x2d, 0x40, 0xbe,
  0x33, 0x1b, 0xa1, 0x3a, 0xe0, 0x94, 0x79, 0xbd, 0x90, 0xdc, 0x0b, 0x3b,
  0x96, 0x90, 0x7a, 0x3c, 0x4d, 0x6e, 0x14, 0xbd, 0x98, 0x4d, 0x93, 0xbd,
  0x68, 0x63, 0x04, 0x3e, 0x1e, 0x1e, 0x7e, 0x3d, 0x5b, 0x49, 0x17, 0x3e,
  0x5f, 0x7f, 0xc8, 0xbd, 0x74, 0x1d, 0x23, 0xbe, 0xcc, 0xec, 0x94, 0xbc,
  0x22, 0xda, 0xae, 0x3d, 0x10, 0xa3, 0xcc, 0x3d, 0x85, 0x7f, 0x85, 0x3d,
